{
  "0": "\u0000",
  "1": "\u0001",
  "2": "\u0002",
  "3": "\u0003",
  "4": "\u0004",
  "5": "\u0005",
  "6": "\u0006",
  "7": "\u0007",
  "8": "\b",
  "9": "\t",
  "10": "\n",
  "11": "\u000b",
  "12": "\f",
  "13": "\r",
  "14": "\u000e",
  "15": "\u000f",
  "16": "\u0010",
  "17": "\u0011",
  "18": "\u0012",
  "19": "\u0013",
  "20": "\u0014",
  "21": "\u0015",
  "22": "\u0016",
  "23": "\u0017",
  "24": "\u0018",
  "25": "\u0019",
  "26": "\u001a",
  "27": "\u001b",
  "28": "\u001c",
  "29": "\u001d",
  "30": "\u001e",
  "31": "\u001f",
  "32": " ",
  "33": "!",
  "34": "\"",
  "35": "#",
  "36": "$",
  "37": "%",
  "38": "&",
  "39": "'",
  "40": "(",
  "41": ")",
  "42": "*",
  "43": "+",
  "44": ",",
  "45": "-",
  "46": ".",
  "47": "/",
  "48": "0",
  "49": "1",
  "50": "2",
  "51": "3",
  "52": "4",
  "53": "5",
  "54": "6",
  "55": "7",
  "56": "8",
  "57": "9",
  "58": ":",
  "59": ";",
  "60": "<",
  "61": "=",
  "62": ">",
  "63": "?",
  "64": "@",
  "65": "A",
  "66": "B",
  "67": "C",
  "68": "D",
  "69": "E",
  "70": "F",
  "71": "G",
  "72": "H",
  "73": "I",
  "74": "J",
  "75": "K",
  "76": "L",
  "77": "M",
  "78": "N",
  "79": "O",
  "80": "P",
  "81": "Q",
  "82": "R",
  "83": "S",
  "84": "T",
  "85": "U",
  "86": "V",
  "87": "W",
  "88": "X",
  "89": "Y",
  "90": "Z",
  "91": "[",
  "92": "\\",
  "93": "]",
  "94": "^",
  "95": "_",
  "96": "`",
  "97": "a",
  "98": "b",
  "99": "c",
  "100": "d",
  "101": "e",
  "102": "f",
  "103": "g",
  "104": "h",
  "105": "i",
  "106": "j",
  "107": "k",
  "108": "l",
  "109": "m",
  "110": "n",
  "111": "o",
  "112": "p",
  "113": "q",
  "114": "r",
  "115": "s",
  "116": "t",
  "117": "u",
  "118": "v",
  "119": "w",
  "120": "x",
  "121": "y",
  "122": "z",
  "123": "{",
  "124": "|",
  "125": "}",
  "126": "~",
  "127": "",
  "128": "",
  "129": "",
  "130": "",
  "131": "",
  "132": "",
  "133": "",
  "134": "",
  "135": "",
  "136": "",
  "137": "",
  "138": "",
  "139": "",
  "140": "",
  "141": "",
  "142": "",
  "143": "",
  "144": "",
  "145": "",
  "146": "",
  "147": "",
  "148": "",
  "149": "",
  "150": "",
  "151": "",
  "152": "",
  "153": "",
  "154": "",
  "155": "",
  "156": "",
  "157": "",
  "158": "",
  "159": "",
  "160": " ",
  "161": "¡",
  "162": "¢",
  "163": "£",
  "164": "¤",
  "165": "¥",
  "166": "¦",
  "167": "§",
  "168": "¨",
  "169": "©",
  "170": "ª",
  "171": "«",
  "172": "¬",
  "173": "­",
  "174": "®",
  "175": "¯",
  "176": "°",
  "177": "±",
  "178": "²",
  "179": "³",
  "180": "´",
  "181": "µ",
  "182": "¶",
  "183": "·",
  "184": "¸",
  "185": "¹",
  "186": "º",
  "187": "»",
  "188": "¼",
  "189": "½",
  "190": "¾",
  "191": "¿",
  "192": "À",
  "193": "Á",
  "194": "Â",
  "195": "Ã",
  "196": "Ä",
  "197": "Å",
  "198": "Æ",
  "199": "Ç",
  "200": "È",
  "201": "É",
  "202": "Ê",
  "203": "Ë",
  "204": "Ì",
  "205": "Í",
  "206": "Î",
  "207": "Ï",
  "208": "Ð",
  "209": "Ñ",
  "210": "Ò",
  "211": "Ó",
  "212": "Ô",
  "213": "Õ",
  "214": "Ö",
  "215": "×",
  "216": "Ø",
  "217": "Ù",
  "218": "Ú",
  "219": "Û",
  "220": "Ü",
  "221": "Ý",
  "222": "Þ",
  "223": "ß",
  "224": "à",
  "225": "á",
  "226": "â",
  "227": "ã",
  "228": "ä",
  "229": "å",
  "230": "æ",
  "231": "ç",
  "232": "è",
  "233": "é",
  "234": "ê",
  "235": "ë",
  "236": "ì",
  "237": "í",
  "238": "î",
  "239": "ï",
  "240": "ð",
  "241": "ñ",
  "242": "ò",
  "243": "ó",
  "244": "ô",
  "245": "õ",
  "246": "ö",
  "247": "÷",
  "248": "ø",
  "249": "ù",
  "250": "ú",
  "251": "û",
  "252": "ü",
  "253": "ý",
  "254": "þ",
  "255": "ÿ",
  "256": "Ġ",
  "257": "–",
  "258": "—",
  "259": "―",
  "260": "‘",
  "261": "’",
  "262": "“",
  "263": "”",
  "264": "…",
  "265": "″",
  "266": "",
  "267": "",
  "268": "<|endoftext|>",
  "269": "eĠ",
  "270": "th",
  "271": "Ġth",
  "272": "Ġ\n",
  "273": "__",
  "274": "on",
  "275": "Ġa",
  "276": "Ġo",
  "277": "ĠtheĠ",
  "278": "ti",
  "279": "er",
  "280": "in",
  "281": "ĠĠ",
  "282": "en",
  "283": "Ġof",
  "284": "dĠ",
  "285": "es",
  "286": ".Ġ",
  "287": "is",
  "288": "____",
  "289": "or",
  "290": ",Ġ",
  "291": "tion",
  "292": "Ġan",
  "293": "at",
  "294": "al",
  "295": "yĠ",
  "296": "tĠ",
  "297": "to",
  "298": "an",
  "299": "men",
  "300": "ar",
  "301": "sĠ",
  "302": "re",
  "303": "ĠofĠ",
  "304": "ch",
  "305": ")Ġ",
  "306": "ĠĠĠĠ",
  "307": "ro",
  "308": "..",
  "309": "edĠ",
  "310": "ec",
  "311": "________",
  "312": "la",
  "313": "ur",
  "314": "for",
  "315": "un",
  "316": "ic",
  "317": ".Ġ\n",
  "318": "Ġor",
  "319": "Ġs",
  "320": "ed",
  "321": "19",
  "322": "ing",
  "323": "ons",
  "324": "of",
  "325": "ment",
  "326": "it",
  "327": "ĠandĠ",
  "328": "ĠofĠtheĠ",
  "329": "Ġ(",
  "330": "ma",
  "331": "all",
  "332": "Ġb",
  "333": "tat",
  "334": "Stat",
  "335": "ation",
  "336": "res",
  "337": "hall",
  "338": "us",
  "339": "Ġp",
  "340": "eĠof",
  "341": "id",
  "342": "ter",
  "343": "Ġin",
  "344": "Ġ\n(",
  "345": "Ac",
  "346": "by",
  "347": "ion",
  "348": "Ġc",
  "349": "s.Ġ",
  "350": "il",
  "351": "om",
  "352": "tit",
  "353": "as",
  "354": "tr",
  "355": "Ġto",
  "356": "ution",
  "357": "ĠC",
  "358": "uch",
  "359": "....",
  "360": "t,Ġ",
  "361": "rov",
  "362": "heĠ",
  "363": "onstit",
  "364": "di",
  "365": "ub",
  "366": "Ġand",
  "367": "em",
  "368": "ul",
  "369": "shall",
  "370": "byĠtheĠ",
  "371": "ĠbeĠ",
  "372": "ith",
  "373": "ĠaĠ",
  "374": "po",
  "375": "________________",
  "376": "Act,Ġ",
  "377": "ĠanyĠ",
  "378": "onstitution",
  "379": "eg",
  "380": "mend",
  "381": "ĠĠĠĠĠĠĠĠ",
  "382": "ra",
  "383": "und",
  "384": "ir",
  "385": "theĠ",
  "386": "li",
  "387": "Par",
  "388": "veĠ",
  "389": "ex",
  "390": "Ġw",
  "391": "TheĠ",
  "392": "ver",
  "393": "ha",
  "394": "StateĠ",
  "395": "pec",
  "396": "our",
  "397": "In",
  "398": "ther",
  "399": "ers",
  "400": "197",
  "401": "e.",
  "402": "el",
  "403": "no",
  "404": "hi",
  "405": "cl",
  "406": "ce",
  "407": "be",
  "408": "w.",
  "409": "e.f",
  "410": "mendment",
  "411": "w.e.f",
  "412": "ĠasĠ",
  "413": "Ġthat",
  "414": "law",
  "415": "TI",
  "416": "w.e.f.Ġ",
  "417": "alĠ",
  "418": "ta",
  "419": "ol",
  "420": "20",
  "421": "if",
  "422": "ON",
  "423": "Ġthis",
  "424": ")ĠAct,Ġ",
  "425": "ĠtheĠ\n",
  "426": "Constitution",
  "427": "ig",
  "428": "Amendment",
  "429": "egis",
  "430": "emb",
  "431": "Ġre",
  "432": "byĠ",
  "433": "over",
  "434": "tin",
  "435": "Sch",
  "436": "Legis",
  "437": "rovis",
  "438": "1-",
  "439": "Ġar",
  "440": "overn",
  "441": "under",
  "442": "with",
  "443": "such",
  "444": "tĠto",
  "445": "useĠ",
  "446": "Ġfor",
  "447": "ag",
  "448": "ent",
  "449": ").Ġ\n",
  "450": "ut",
  "451": "oun",
  "452": "mayĠ",
  "453": ",Ġs.Ġ",
  "454": "Govern",
  "455": "pl",
  "456": "ud",
  "457": "fic",
  "458": "Ġd",
  "459": "and",
  "460": "Ġany",
  "461": "Ġas",
  "462": "ting",
  "463": "resid",
  "464": "Ġm",
  "465": "Amendment)ĠAct,Ġ",
  "466": "am",
  "467": "thĠ",
  "468": "Indi",
  "469": "Ġsuch",
  "470": "edĠin",
  "471": "Ġshall",
  "472": "edul",
  "473": "Schedul",
  "474": "........",
  "475": "andĠ",
  "476": "Presid",
  "477": "aĠ",
  "478": "ĠtheĠp",
  "479": "ConstitutionĠ(",
  "480": "qu",
  "481": "ceĠ",
  "482": "ticl",
  "483": "beĠ",
  "484": "lia",
  "485": "cil",
  "486": "Un",
  "487": "tiveĠ",
  "488": "itor",
  "489": "Ġother",
  "490": "rom",
  "491": "ouncil",
  "492": "hich",
  "493": "ri",
  "494": "fer",
  "495": "Ho",
  "496": "Parlia",
  "497": "com",
  "498": "mentĠ",
  "499": "Union",
  "500": "esĠ",
  "501": "lauseĠ",
  "502": ".—",
  "503": "igh",
  "504": "istr",
  "505": "sion",
  "506": "ss",
  "507": "shallĠbeĠ",
  "508": "HE",
  "509": "ĠofĠ\n",
  "510": "ritor",
  "511": "s.ĠbyĠtheĠ",
  "512": ".Ġ\n(",
  "513": "195",
  "514": "ty",
  "515": "ts",
  "516": "erv",
  "517": "India",
  "518": "lat",
  "519": "Ġarticl",
  "520": "eĠofĠ",
  "521": "up",
  "522": ",Ġ\n",
  "523": "ad",
  "524": "(1",
  "525": "tedĠ",
  "526": "pos",
  "527": "Ġ\n1",
  "528": "respec",
  "529": "ev",
  "530": "ay",
  "531": "THE",
  "532": "from",
  "533": "Ġma",
  "534": "ions",
  "535": ".ĠS",
  "536": "eĠofĠtheĠ",
  "537": "ci",
  "538": "ea",
  "539": "ND",
  "540": "ĠO",
  "541": "par",
  "542": "ection",
  "543": "entĠ",
  "544": "deĠ",
  "545": "Legislat",
  "546": "territor",
  "547": ".ĠTheĠ",
  "548": "ll",
  "549": "ĠtheĠc",
  "550": "rovid",
  "551": "Ġap",
  "552": "meĠ",
  "553": "Ġ(w.e.f.Ġ",
  "554": "PartĠ",
  "555": ";Ġ\n(",
  "556": "ĠorĠ",
  "557": "omm",
  "558": "rovisions",
  "559": "toĠtheĠ",
  "560": "im",
  "561": "ĠOF",
  "562": "eĠtheĠ",
  "563": "ONS",
  "564": "erson",
  "565": "ef",
  "566": ",ĠtheĠ",
  "567": "per",
  "568": "Legislatur",
  "569": "IA",
  "570": "Hous",
  "571": "ow",
  "572": "so",
  "573": "II",
  "574": "State",
  "575": "Council",
  "576": "toĠ",
  "577": "ord",
  "578": "ill",
  "579": "Ġno",
  "580": "ĠarticleĠ",
  "581": "ph",
  "582": "ac",
  "583": "raph",
  "584": "IND",
  "585": "ess",
  "586": "Ass",
  "587": "od",
  "588": "TION",
  "589": "INDIA",
  "590": "Governor",
  "591": "agraph",
  "592": "ĠofĠthis",
  "593": "THEĠC",
  "594": "ĠP",
  "595": "TIT",
  "596": "ONSTIT",
  "597": "ONSTITU",
  "598": "lation",
  "599": "ONSTITUTION",
  "600": "THEĠCONSTITUTION",
  "601": "196",
  "602": "sub",
  "603": "Ġ1",
  "604": "THEĠCONSTITUTIONĠOF",
  "605": "States",
  "606": "Ġrespec",
  "607": "Ġ\ntheĠ",
  "608": "INDIAĠ\n(",
  "609": "THEĠCONSTITUTIONĠOFĠĠ",
  "610": "THEĠCONSTITUTIONĠOFĠĠINDIAĠ\n(",
  "611": "de",
  "612": "mit",
  "613": "his",
  "614": "ĠofĠIndia",
  "615": "Ġac",
  "616": "inĠtheĠ",
  "617": "bl",
  "618": "No",
  "619": "istric",
  "620": ".]",
  "621": "Ġwhich",
  "622": "ties",
  "623": "ingĠ",
  "624": "um",
  "625": "ĠĠĠĠĠĠĠĠĠĠĠĠĠĠĠĠ",
  "626": "ies",
  "627": "ervic",
  "628": "pro",
  "629": "Ġoffic",
  "630": "st",
  "631": "min",
  "632": "et",
  "633": "ty-",
  "634": "2)Ġ",
  "635": "s.ĠbyĠtheĠConstitutionĠ(",
  "636": "con",
  "637": "ifi",
  "638": "ear",
  "639": "1956",
  "640": "ity",
  "641": "ourt",
  "642": "ly",
  "643": "memb",
  "644": "forĠ",
  "645": ".Ġ—",
  "646": "exp",
  "647": "198",
  "648": "lativeĠ",
  "649": "haveĠ",
  "650": "redĠ",
  "651": "eĠ\n",
  "652": "ission",
  "653": "ĠclauseĠ",
  "654": "thĠAmendment)ĠAct,Ġ",
  "655": "LegislativeĠ",
  "656": "Ġther",
  "657": "Ġwith",
  "658": "ActĠ",
  "659": "Ġall",
  "660": "(1)Ġ",
  "661": "ĠthatĠ",
  "662": ".ĠSub",
  "663": "Re",
  "664": "ourtĠ",
  "665": "der",
  "666": "atter",
  "667": ").Ġ",
  "668": "spec",
  "669": "wh",
  "670": "ingĠin",
  "671": "ĠConstitution",
  "672": ",Ġor",
  "673": "uc",
  "674": "int",
  "675": "tain",
  "676": "ĠofĠaĠ",
  "677": "ap",
  "678": "____________",
  "679": "ĠandĠtheĠ",
  "680": "________________________________",
  "681": "____________________________________________",
  "682": "______________________________________________",
  "683": "ans",
  "684": "Government",
  "685": "ationĠofĠ",
  "686": "PresidentĠ",
  "687": "ib",
  "688": "ommission",
  "689": "ĠtoĠ",
  "690": "anc",
  "691": "rovision",
  "692": "asĠ",
  "693": "udg",
  "694": "______________________________________________Ġ\n1",
  "695": "ĠĠĠ",
  "696": "ateĠ",
  "697": "ix",
  "698": "befor",
  "699": "24",
  "700": "pow",
  "701": "clud",
  "702": "Ġpar",
  "703": "des",
  "704": "For",
  "705": "end",
  "706": "Ġis",
  "707": "man",
  "708": "jec",
  "709": "ang",
  "710": "urpos",
  "711": "mayĠbeĠ",
  "712": "cla",
  "713": "Assemb",
  "714": "edĠto",
  "715": "stĠ",
  "716": "**",
  "717": "Ġthere",
  "718": "201",
  "719": "Ġ\nof",
  "720": "ĠshallĠbeĠ",
  "721": "Parliament",
  "722": "keĠ",
  "723": "—Ġ\n(",
  "724": "hasĠ",
  "725": "ubl",
  "726": "rec",
  "727": "Ġ\nP",
  "728": "uth",
  "729": "ParliamentĠ",
  "730": "200",
  "731": "President",
  "732": "ĠofĠtheĠ\n",
  "733": "ferredĠ",
  "734": "Ġsub",
  "735": "idĠ",
  "736": "THEĠCONSTITUTIONĠOFĠĠINDIAĠ\n(PartĠ",
  "737": "Ġby",
  "738": "desh",
  "739": "y,Ġ",
  "740": "por",
  "741": "ĠtoĠtheĠ",
  "742": "gan",
  "743": ".ĠĠ",
  "744": "uthor",
  "745": ",Ġs.Ġ2",
  "746": ".ĠP",
  "747": "been",
  "748": "eĠor",
  "749": "sĠandĠ",
  "750": "paragraph",
  "751": "(w.e.f.Ġ",
  "752": "High",
  "753": "Ġ3",
  "754": ".ĠIn",
  "755": "e,Ġ",
  "756": "ĠofĠanyĠ",
  "757": "................",
  "758": "bleĠ",
  "759": "ĠmadeĠ",
  "760": "ScheduledĠ",
  "761": "hair",
  "762": "itĠ",
  "763": "fec",
  "764": "upre",
  "765": "upremeĠ",
  "766": "form",
  "767": "ou",
  "768": "sĠin",
  "769": "ublic",
  "770": "SupremeĠ",
  "771": ".Ġ\n1",
  "772": "ifiedĠin",
  "773": "Ġaf",
  "774": "ial",
  "775": "jectĠto",
  "776": "cement",
  "777": "iv",
  "778": "econ",
  "779": ".Ġ\n(2)Ġ",
  "780": "ĠS",
  "781": "edĠbyĠtheĠ",
  "782": "—Ġ\n(a",
  "783": "clauseĠ",
  "784": "dis",
  "785": "1-1",
  "786": "ĠandĠ\n",
  "787": "cons",
  "788": "aryĠ",
  "789": "sa",
  "790": "onĠtheĠ",
  "791": "suchĠ",
  "792": "aseĠ",
  "793": ")ĠtheĠ",
  "794": "byĠlaw",
  "795": "which",
  "796": "mation",
  "797": "enc",
  "798": "year",
  "799": "Chair",
  "800": "even",
  "801": "tedĠbyĠtheĠ",
  "802": ").Ġ\n2",
  "803": "ass",
  "804": "SupremeĠC",
  "805": "6-",
  "806": "ition",
  "807": "forĠtheĠ",
  "808": "rib",
  "809": "HighĠC",
  "810": "3)Ġ",
  "811": "Ġcon",
  "812": "esĠofĠ",
  "813": "ii",
  "814": "ari",
  "815": "Commission",
  "816": "ĠM",
  "817": "radesh",
  "818": "thingĠin",
  "819": "Ġad",
  "820": "Schedule",
  "821": "Ġ\n3",
  "822": "rovided",
  "823": "madeĠ",
  "824": "Assembly",
  "825": "ĠA",
  "826": "eak",
  "827": "irstĠ",
  "828": "ĠofĠs",
  "829": "anceĠ",
  "830": "power",
  "831": "sĠ\n",
  "832": "person",
  "833": "tic",
  "834": "2[",
  "835": "Ġperson",
  "836": "Ġbe",
  "837": ")Ġ\n",
  "838": "atedĠ",
  "839": ",Ġin",
  "840": "matter",
  "841": "effec",
  "842": "Ġorder",
  "843": "Bill",
  "844": "tw",
  "845": "territory",
  "846": "mencement",
  "847": "Judg",
  "848": "Ġf",
  "849": ".ĠA",
  "850": "ulation",
  "851": "ister",
  "852": "peak",
  "853": "bo",
  "854": "tĠofĠ",
  "855": "beforeĠtheĠ",
  "856": "timeĠ",
  "857": "ureĠ",
  "858": "ĠnotĠ",
  "859": "ĠrespectĠto",
  "860": "ĠaĠStateĠ",
  "861": "ĠĠ\n",
  "862": "stand",
  "863": "ereĠ",
  "864": "ish",
  "865": "point",
  "866": "notĠ",
  "867": "isation",
  "868": "1-11-",
  "869": ".ĠC",
  "870": "ities",
  "871": "tĠ\n",
  "872": "istrictĠ",
  "873": "StateĠofĠ",
  "874": "ĠtheĠprovisions",
  "875": "vo",
  "876": "Ġappl",
  "877": "orĠ",
  "878": "peaker",
  "879": "members",
  "880": "Ġpro",
  "881": "Forty-",
  "882": "eral",
  "883": "onĠ",
  "884": "Ġwh",
  "885": "reg",
  "886": "Ġso",
  "887": "Speaker",
  "888": "Ġauthor",
  "889": "enceĠ",
  "890": "tax",
  "891": "b)Ġ",
  "892": "elyĠ",
  "893": "tions",
  "894": ",ĠandĠ",
  "895": "gr",
  "896": "ip",
  "897": "edĠ\n",
  "898": "lating",
  "899": "ousĠ",
  "900": "Ġ\n(w.e.f.Ġ",
  "901": "ĠorĠ\n",
  "902": "Chairman",
  "903": "standing",
  "904": "sĠ(",
  "905": "ĠofĠ197",
  "906": "Ġare",
  "907": "old",
  "908": "Ġacc",
  "909": ",Ġas",
  "910": "een",
  "911": "ication",
  "912": "LegislatureĠof",
  "913": "ertain",
  "914": "cep",
  "915": "ĠtheĠpurpos",
  "916": "specifiedĠin",
  "917": ")ĠĠ",
  "918": "Seven",
  "919": "2-",
  "920": "os",
  "921": "),Ġs.Ġ",
  "922": "ep",
  "923": "twith",
  "924": "har",
  "925": "Ġomit",
  "926": "Ġat",
  "927": "ganisation",
  "928": "olution",
  "929": "twithstanding",
  "930": "ingĠtheĠ",
  "931": "rovidedĠthat",
  "932": "Ġsub-",
  "933": "fication",
  "934": "ĠsuchĠ",
  "935": "ĠofĠthisĠConstitution",
  "936": "anyĠ",
  "937": "LandĠ",
  "938": "Ġdis",
  "939": "eat",
  "940": "Ġ\n______________________________________________Ġ\n1",
  "941": "ferredĠto",
  "942": "edi",
  "943": "toĠbeĠ",
  "944": "1-11-1956",
  "945": "ĠinĠtheĠ",
  "946": "commencement",
  "947": "iction",
  "948": "edĠby",
  "949": "Ġ(1",
  "950": "ber",
  "951": "Trib",
  "952": "rev",
  "953": "hal",
  "954": "Fund",
  "955": "entr",
  "956": "UnionĠ",
  "957": "red",
  "958": "econdĠ",
  "959": "mayĠbe",
  "960": "eo",
  "961": "13",
  "962": ".ĠSubs.ĠbyĠtheĠConstitutionĠ(",
  "963": "territories",
  "964": "ĠinĠ",
  "965": "ult",
  "966": "inister",
  "967": "one",
  "968": ".ĠE",
  "969": "eopl",
  "970": "ram",
  "971": "Ġthan",
  "972": "ityĠ",
  "973": "char",
  "974": ",ĠforĠ",
  "975": "Pro",
  "976": "10",
  "977": "other",
  "978": "pres",
  "979": "ens",
  "980": "HouseĠ",
  "981": "ign",
  "982": "ceed",
  "983": "member",
  "984": "Amendment)ĠAct,Ġ197",
  "985": "ither",
  "986": ":Ġ\nP",
  "987": "shallĠ",
  "988": "ement",
  "989": "oll",
  "990": "HouseĠofĠtheĠ",
  "991": "ableĠ",
  "992": "s,Ġ",
  "993": "umber",
  "994": "either",
  "995": "qual",
  "996": "direc",
  "997": "utyĠ",
  "998": "uton",
  "999": "utonom",
  "1000": "An",
  "1001": "clauseĠ(",
  "1002": "subjectĠto",
  "1003": "Reor",
  "1004": "anch",
  "1005": "election",
  "1006": "Ġcons",
  "1007": "Reorganisation",
  "1008": "hasĠbeen",
  "1009": "tro",
  "1010": "LegislativeĠAssembly",
  "1011": "lyĠ",
  "1012": "mo",
  "1013": "Ġthereof",
  "1014": "ĠbyĠ",
  "1015": ".Ġ\n3",
  "1016": "Reg",
  "1017": "clamation",
  "1018": "2)",
  "1019": "ever",
  "1020": "medi",
  "1021": "ted",
  "1022": "alĠ\n",
  "1023": "righ",
  "1024": "Ġ\n2",
  "1025": ".Ġ(w.e.f.Ġ",
  "1026": "provid",
  "1027": "III",
  "1028": "ER",
  "1029": ".Ġ\n2",
  "1030": "each",
  "1031": "op",
  "1032": "ĠforĠtheĠ",
  "1033": "*ĠĠĠĠĠĠĠĠĠĠĠĠĠĠĠĠ",
  "1034": ".—TheĠ",
  "1035": "ĠtoĠbeĠ",
  "1036": "Ġper",
  "1037": "ĠofficeĠ",
  "1038": "ĠasĠmayĠbeĠ",
  "1039": "deem",
  "1040": "tak",
  "1041": "ard",
  "1042": "ced",
  "1043": "elec",
  "1044": "ĠCouncil",
  "1045": "ĠanyĠother",
  "1046": "word",
  "1047": "rul",
  "1048": "Peopl",
  "1049": "Ġmemb",
  "1050": "esĠofĠtheĠ",
  "1051": "tingĠ",
  "1052": "ScheduleĠ",
  "1053": "ĠanyĠ\n",
  "1054": ",Ġfor",
  "1055": "excep",
  "1056": "utonomousĠ",
  "1057": "fromĠtheĠ",
  "1058": "ist",
  "1059": "lev",
  "1060": "charg",
  "1061": "\"Ġ(w.e.f.Ġ",
  "1062": ".Ġ\n(3)Ġ",
  "1063": "ĠofĠa",
  "1064": "Ġafter",
  "1065": "Dep",
  "1066": "Ġrelation",
  "1067": "erc",
  "1068": "FirstĠ",
  "1069": "iod",
  "1070": "Ġme",
  "1071": "AR",
  "1072": "anchay",
  "1073": "anchayat",
  "1074": "ong",
  "1075": "1[",
  "1076": "less",
  "1077": "esĠandĠ",
  "1078": "ten",
  "1079": "unic",
  "1080": "ĠtheĠcaseĠ",
  "1081": "(1)",
  "1082": "may,Ġ",
  "1083": "ĠI",
  "1084": "su",
  "1085": "ministr",
  "1086": "includ",
  "1087": "ibid",
  "1088": "saidĠ",
  "1089": ",Ġand",
  "1090": "inĠ",
  "1091": "ialĠ",
  "1092": "***",
  "1093": "immedi",
  "1094": "Act",
  "1095": "Ġreg",
  "1096": "o-",
  "1097": "fromĠ",
  "1098": "Minister",
  "1099": ",ĠforĠ\"",
  "1100": "fi",
  "1101": "dec",
  "1102": "te",
  "1103": "tyĠ",
  "1104": "unc",
  "1105": "Ġ2",
  "1106": "Ġprovision",
  "1107": "243",
  "1108": "ood",
  "1109": "ĠofĠarticleĠ",
  "1110": "atelyĠ",
  "1111": ").ĠTHEĠCONSTITUTIONĠOFĠĠINDIAĠ\n(PartĠ",
  "1112": "DeputyĠ",
  "1113": "pri",
  "1114": "ercis",
  "1115": "ĠareĠ",
  "1116": "ĠclauseĠ(",
  "1117": "sub-",
  "1118": "til",
  "1119": "fin",
  "1120": "uris",
  "1121": "Th",
  "1122": "itsĠ",
  "1123": "expir",
  "1124": "ĠActĠ",
  "1125": "hold",
  "1126": "urisd",
  "1127": "urisdiction",
  "1128": "unicip",
  "1129": "9ĠandĠ",
  "1130": "—Ġ\n(a)Ġ",
  "1131": "ary",
  "1132": "edĠbyĠ",
  "1133": "VI",
  "1134": "199",
  "1135": "ĠasĠtheĠ",
  "1136": "twithstandingĠany",
  "1137": "ab",
  "1138": "Ġag",
  "1139": "resolution",
  "1140": "exercis",
  "1141": "utĠ",
  "1142": "underĠthis",
  "1143": "ĠAct,Ġ",
  "1144": "soci",
  "1145": "Ġthe",
  "1146": "ques",
  "1147": "SupremeĠCourtĠ",
  "1148": "its",
  "1149": "Ġcom",
  "1150": "thingĠinĠthis",
  "1151": "lawĠmadeĠ",
  "1152": "duc",
  "1153": "nec",
  "1154": "provisions",
  "1155": "unicipal",
  "1156": "\n(",
  "1157": "immediatelyĠ",
  "1158": "Ġparagraph",
  "1159": "Ġal",
  "1160": "ower",
  "1161": "vil",
  "1162": "ativeĠ",
  "1163": "ĠbyĠtheĠ",
  "1164": "hief",
  "1165": "reas",
  "1166": "four",
  "1167": "ĠD",
  "1168": "ationĠofĠtheĠ",
  "1169": "edĠfor",
  "1170": "olid",
  "1171": "eal",
  "1172": "tsĠ",
  "1173": "lig",
  "1174": "ĠorĠtheĠ",
  "1175": "ĠheĠ",
  "1176": "4)Ġ",
  "1177": "5-",
  "1178": ").Ġ\n3",
  "1179": "ash",
  "1180": "Or",
  "1181": "ĠofĠtheĠStateĠ",
  "1182": "17",
  "1183": "io",
  "1184": "ider",
  "1185": "withĠrespectĠto",
  "1186": "pointment",
  "1187": "underĠtheĠ",
  "1188": "Ġspec",
  "1189": "eng",
  "1190": "es,Ġ",
  "1191": "ScheduledĠTrib",
  "1192": "oc",
  "1193": "jurisdiction",
  "1194": "9ĠandĠSch",
  "1195": "lar",
  "1196": "exis",
  "1197": "HouseĠofĠtheĠPeopl",
  "1198": "ĠmakeĠ",
  "1199": "onsolid",
  "1200": "ueĠ",
  "1201": "istrict",
  "1202": "stit",
  "1203": "af",
  "1204": "oper",
  "1205": "oneĠ",
  "1206": "Panchayat",
  "1207": "me",
  "1208": "c)Ġ",
  "1209": "ferredĠtoĠin",
  "1210": "ĠtheĠcaseĠmayĠbe",
  "1211": "ceeding",
  "1212": "commend",
  "1213": "yĠ\n",
  "1214": "Ġamend",
  "1215": "termin",
  "1216": "refer",
  "1217": "wis",
  "1218": "number",
  "1219": "qui",
  "1220": "LE",
  "1221": "e-",
  "1222": "anci",
  "1223": "23",
  "1224": "Assam",
  "1225": "provision",
  "1226": "ĠPradesh",
  "1227": "ether",
  "1228": ".ĠIns.ĠbyĠtheĠConstitutionĠ(",
  "1229": "Reform",
  "1230": "trans",
  "1231": "aries",
  "1232": "uties",
  "1233": "ure",
  "1234": "ĠapplyĠ",
  "1235": "erviceĠ",
  "1236": "secondĠ",
  "1237": "ĠomittedĠbyĠtheĠ",
  "1238": "Ġpass",
  "1239": "poin",
  "1240": "LandĠReform",
  "1241": ".ĠD",
  "1242": "Ġmatter",
  "1243": "1-197",
  "1244": ",Ġibid",
  "1245": ":Ġ\nProvidedĠthat",
  "1246": "26",
  "1247": "Municipal",
  "1248": "Consolid",
  "1249": ".Ġ—(1)Ġ",
  "1250": "ĠofĠ196",
  "1251": "3)",
  "1252": "sĠofĠ",
  "1253": "educ",
  "1254": "giv",
  "1255": "sĠre",
  "1256": "ĠtheĠcon",
  "1257": "until",
  "1258": ",ĠasĠtheĠcaseĠmayĠbe",
  "1259": "LegislatureĠofĠtheĠ",
  "1260": "Proclamation",
  "1261": "4-",
  "1262": "ĠanyĠofĠtheĠ",
  "1263": "him",
  "1264": "4[",
  "1265": "tĠofĠtheĠ",
  "1266": "king",
  "1267": "Chief",
  "1268": "1956,Ġs.Ġ2",
  "1269": "necess",
  "1270": "makeĠ",
  "1271": "gram",
  "1272": "Ġ\nĠ\n",
  "1273": "ĠofĠ\ntheĠ",
  "1274": "ast",
  "1275": "18",
  "1276": "aj",
  "1277": "NotwithstandingĠany",
  "1278": "thĠSchedule",
  "1279": "Land",
  "1280": "eneral",
  "1281": "ving",
  "1282": "ath",
  "1283": "ĠĠ(",
  "1284": "ĠnotĠbeĠ",
  "1285": "tification",
  "1286": "-6-",
  "1287": "Ġaccord",
  "1288": "ĠaĠ\n",
  "1289": "iesĠ",
  "1290": "37",
  "1291": "tiv",
  "1292": "education",
  "1293": "CouncilĠofĠ",
  "1294": "30",
  "1295": "Ġapp",
  "1296": "oseĠ",
  "1297": "pen",
  "1298": ".ĠR",
  "1299": "ĠasĠto",
  "1300": "good",
  "1301": "atedĠFund",
  "1302": "LegislatureĠofĠaĠStateĠ",
  "1303": ").ĠĠ",
  "1304": "half",
  "1305": "1979",
  "1306": "Six",
  "1307": ".ĠSubs.ĠbyĠtheĠ",
  "1308": "ScheduledĠTribes",
  "1309": "sĠofĠtheĠ",
  "1310": "estĠ",
  "1311": "that",
  "1312": "nam",
  "1313": "tor",
  "1314": "Ġarea",
  "1315": "vac",
  "1316": "11",
  "1317": "ardĠ",
  "1318": "reserv",
  "1319": "edĠinĠtheĠ",
  "1320": "ConsolidatedĠFund",
  "1321": "byĠs.Ġ",
  "1322": "Beng",
  "1323": "GovernmentĠofĠIndia",
  "1324": "val",
  "1325": "foll",
  "1326": "follow",
  "1327": "HighĠCourtĠ",
  "1328": "ĠB",
  "1329": "plan",
  "1330": "edĠasĠ",
  "1331": ".ĠTheĠword",
  "1332": "9-",
  "1333": "Sub",
  "1334": "public",
  "1335": "y-",
  "1336": "judg",
  "1337": "butĠ",
  "1338": ",ĠĠ",
  "1339": "Ġotherwis",
  "1340": "atgram",
  "1341": "Ex",
  "1342": "inter",
  "1343": "func",
  "1344": "ĠJ",
  "1345": "trib",
  "1346": "ne",
  "1347": "icult",
  "1348": "gran",
  "1349": "edĠtoĠbeĠ",
  "1350": ".—(1)Ġ",
  "1351": "ART",
  "1352": "tsĠandĠ",
  "1353": "27",
  "1354": "question",
  "1355": "HighĠCourt",
  "1356": "Ġl",
  "1357": "XX",
  "1358": "everyĠ",
  "1359": "wn",
  "1360": "dateĠ",
  "1361": "s.Ġ\n",
  "1362": "16",
  "1363": "angu",
  "1364": "anguag",
  "1365": "LegislativeĠCouncil",
  "1366": "endit",
  "1367": "anĠ",
  "1368": "SeventhĠAmendment)ĠAct,Ġ",
  "1369": "1978",
  "1370": "taken",
  "1371": "iz",
  "1372": ".]Ġ\n",
  "1373": "pr",
  "1374": "two",
  "1375": "oreĠ",
  "1376": "comm",
  "1377": "kh",
  "1378": "ĠHous",
  "1379": ")ĠofĠ",
  "1380": "ĠofĠaĠStateĠ",
  "1381": "istrictĠCouncil",
  "1382": "LandĠReformsĠ(",
  "1383": "]Ġ\n",
  "1384": "tĠin",
  "1385": "Ġass",
  "1386": "Ter",
  "1387": "eĠofĠ\n",
  "1388": "Ġcla",
  "1389": "Ġ\nandĠ",
  "1390": "expendit",
  "1391": ";Ġ\n(b)Ġ",
  "1392": "immediatelyĠbeforeĠtheĠ",
  "1393": ",Ġs.Ġ3",
  "1394": "ĠwhichĠtheĠ",
  "1395": "ĠĠĠĠĠĠĠ",
  "1396": "tiz",
  "1397": "ditions",
  "1398": "ner",
  "1399": "29",
  "1400": "Pradesh",
  "1401": "way",
  "1402": "ed,Ġ",
  "1403": "Region",
  "1404": "eil",
  "1405": "exec",
  "1406": "fur",
  "1407": "sĠfor",
  "1408": "Raj",
  "1409": "recommend",
  "1410": "commencementĠofĠthisĠConstitution",
  "1411": "2016",
  "1412": "fa",
  "1413": "ĠforĠ",
  "1414": "ĠrelationĠto",
  "1415": "34",
  "1416": "existingĠ",
  "1417": "Ġout",
  "1418": "ingĠ\n",
  "1419": "dat",
  "1420": "Ġbehalf",
  "1421": "Mad",
  "1422": "Ġsub-paragraph",
  "1423": "tabl",
  "1424": "beforeĠ",
  "1425": "ce,Ġ",
  "1426": "gricult",
  "1427": "cedureĠ",
  "1428": "offic",
  "1429": "Presiden",
  "1430": "isĠ",
  "1431": "ot",
  "1432": "SupremeĠCourt",
  "1433": "Ġoper",
  "1434": "Ġservic",
  "1435": "ves",
  "1436": "Amendment)ĠAct,Ġ1976",
  "1437": "i)Ġ",
  "1438": "1956,Ġs.Ġ29ĠandĠSch",
  "1439": "shallĠhaveĠ",
  "1440": "ĠN",
  "1441": "Ġ\nC",
  "1442": "Ġcas",
  "1443": ".ĠPower",
  "1444": "operativeĠ",
  "1445": "14",
  "1446": "Lis",
  "1447": "ĠCommission",
  "1448": "onstitut",
  "1449": "3-",
  "1450": "sĠ\"",
  "1451": ".Ġ(w.e.f.Ġ1-11-1956",
  "1452": "1971",
  "1453": ".Ġ\n______________________________________________Ġ\n1",
  "1454": "years",
  "1455": "ihar",
  "1456": "ĠhasĠbeen",
  "1457": "........................",
  "1458": "tar",
  "1459": "gro",
  "1460": "Ġcertain",
  "1461": "Con",
  "1462": "dh",
  "1463": "impos",
  "1464": "ĠwithĠrespectĠto",
  "1465": ")ĠandĠ",
  "1466": "ĠofĠ198",
  "1467": "bari",
  "1468": "ataĠ",
  "1469": "ug",
  "1470": "Omit",
  "1471": "Vic",
  "1472": "latingĠto",
  "1473": "owanc",
  "1474": "financi",
  "1475": "powers",
  "1476": "ĠautonomousĠ",
  "1477": "toĠ\n",
  "1478": "Ġperiod",
  "1479": "Territor",
  "1480": "Ġmember",
  "1481": "Bihar",
  "1482": "ĠPatgram",
  "1483": "ĠofĠtheĠUnion",
  "1484": "General",
  "1485": "ences",
  "1486": "ĠforceĠ",
  "1487": "Cast",
  "1488": "Vice-",
  "1489": "resp",
  "1490": "Miz",
  "1491": "thĠAmendment",
  "1492": "s.Ġ—",
  "1493": "anceĠwith",
  "1494": "Ġmeans",
  "1495": ",Ġs.Ġ4",
  "1496": "EN",
  "1497": "hip",
  "1498": "ĠatĠtheĠ",
  "1499": "stitution",
  "1500": "Ġrespect",
  "1501": "six",
  "1502": "amil",
  "1503": "2000",
  "1504": "Forty-four",
  "1505": "eilingĠ",
  "1506": "undred",
  "1507": "o-operativeĠ",
  "1508": "utiveĠ",
  "1509": "dition",
  "1510": ".ĠB",
  "1511": "pur",
  "1512": "ublicĠS",
  "1513": "ScheduledĠCast",
  "1514": ";Ġand",
  "1515": "ĠNo",
  "1516": "ĠofĠsuch",
  "1517": "ĠomittedĠbyĠtheĠConstitutionĠ(",
  "1518": "BengalĠ",
  "1519": "ganj",
  "1520": "On",
  "1521": "esĠ\n",
  "1522": "underĠarticleĠ",
  "1523": "tablish",
  "1524": "plo",
  "1525": "lawsĠ",
  "1526": "udic",
  "1527": "dur",
  "1528": "Ġcomm",
  "1529": "12",
  "1530": "edĠinĠ",
  "1531": "15",
  "1532": "Ġauthority",
  "1533": "dhra",
  "1534": "omin",
  "1535": "Forty-secondĠ",
  "1536": "territoryĠofĠIndia",
  "1537": "Ġ5",
  "1538": "ĠsuchĠ\n",
  "1539": "determin",
  "1540": "gricultur",
  "1541": "ext",
  "1542": "ĠĠĠĠĠĠ",
  "1543": "equ",
  "1544": "ain",
  "1545": "Ġ\nre",
  "1546": "elf",
  "1547": "Ġon",
  "1548": "ĠtheĠcas",
  "1549": "reasĠ",
  "1550": ",Ġif",
  "1551": "firstĠ",
  "1552": "Act,Ġ\n",
  "1553": "tru",
  "1554": ".ĠĠ\n",
  "1555": "ĠandĠother",
  "1556": "duties",
  "1557": "Ad",
  "1558": "erg",
  "1559": "eas",
  "1560": "present",
  "1561": "Ġalso",
  "1562": "ĠclauseĠ(1)",
  "1563": "tot",
  "1564": "20-6-",
  "1565": "effect",
  "1566": "onstitu",
  "1567": "ReorganisationĠAct,Ġ",
  "1568": "ayĠ",
  "1569": "section",
  "1570": "ĠorĠin",
  "1571": "ession",
  "1572": "Ġprovisions",
  "1573": "usin",
  "1574": "ĠorĠother",
  "1575": "servic",
  "1576": "trad",
  "1577": "Ġ\n1[",
  "1578": "may",
  "1579": "),Ġ",
  "1580": "ĠofĠthisĠ\n",
  "1581": ".Ġ\n(4)Ġ",
  "1582": "further",
  "1583": "dification",
  "1584": "forĠtheĠpurpos",
  "1585": "Tamil",
  "1586": "adu",
  "1587": "ĠthoseĠ",
  "1588": "DistrictĠCouncil",
  "1589": "IndiaĠ",
  "1590": ".Ġ\n243",
  "1591": "yĠandĠ",
  "1592": "Andhra",
  "1593": "oram",
  "1594": "enty-",
  "1595": "s.ĠbyĠs.Ġ",
  "1596": "b)ĠtheĠ",
  "1597": "Thir",
  "1598": "Ġ\n(b)Ġ",
  "1599": "author",
  "1600": "part",
  "1601": "Ġ\nofĠtheĠ",
  "1602": "ound",
  "1603": "aĠActĠ",
  "1604": "2019",
  "1605": "TER",
  "1606": "ification",
  "1607": ".ĠT",
  "1608": "ĠandĠall",
  "1609": "edĠor",
  "1610": "Ġdec",
  "1611": "reven",
  "1612": "eatsĠ",
  "1613": "evel",
  "1614": "evelop",
  "1615": "unless",
  "1616": "ĠtheĠpro",
  "1617": "20-6-1979",
  "1618": "ĠshallĠ",
  "1619": "eachĠ",
  "1620": "WestĠ",
  "1621": "Regional",
  "1622": "Ġprovid",
  "1623": "Ar",
  "1624": "......",
  "1625": "eĠandĠ",
  "1626": "etc",
  "1627": "ren",
  "1628": "31",
  "1629": ".ĠSpec",
  "1630": "DeputyĠSpeaker",
  "1631": "ĠTHE",
  "1632": "ĠJus",
  "1633": "byĠParliament",
  "1634": "encyĠ",
  "1635": "administr",
  "1636": "ticleĠ",
  "1637": "ĠH",
  "1638": "having",
  "1639": "iodĠ",
  "1640": "UnionĠterritory",
  "1641": ".ĠIns.ĠbyĠtheĠ",
  "1642": "onth",
  "1643": ".Ġ\n(2)ĠTheĠ",
  "1644": "Nin",
  "1645": "within",
  "1646": ",ĠasĠ",
  "1647": "TamilĠN",
  "1648": "TamilĠNadu",
  "1649": "dra",
  "1650": "If",
  "1651": "16-",
  "1652": "tsĠofĠ",
  "1653": "mentĠto",
  "1654": "Ġh",
  "1655": "fir",
  "1656": "andĠtheĠ",
  "1657": "81",
  "1658": "after",
  "1659": "ListĠ",
  "1660": "ĠanĠ",
  "1661": "necessaryĠ",
  "1662": "Ġwho",
  "1663": "ĠanyĠc",
  "1664": "Ġfar",
  "1665": "oul",
  "1666": ").Ġ\n4",
  "1667": "ely",
  "1668": "”Ġmeans",
  "1669": "sĠfromĠtheĠ",
  "1670": "ĠaĠmember",
  "1671": "thĠ\n",
  "1672": "pointedĠ",
  "1673": "ĠitĠ",
  "1674": "eĠH",
  "1675": "certain",
  "1676": "port",
  "1677": "ploy",
  "1678": "titl",
  "1679": "ĠrespectĠofĠ",
  "1680": "iveĠ",
  "1681": "HA",
  "1682": "enci",
  "1683": "alaries",
  "1684": "whether",
  "1685": "shall,Ġ",
  "1686": "ĠaccordanceĠwith",
  "1687": "suchĠ\n",
  "1688": ",ĠtheĠ\n",
  "1689": "ĠofĠthat",
  "1690": "Ut",
  "1691": "Uttar",
  "1692": "ntr",
  "1693": "haveĠbeen",
  "1694": "establish",
  "1695": "quir",
  "1696": "boli",
  "1697": "bolition",
  "1698": "rac",
  "1699": "alĠandĠ",
  "1700": "ĠofĠthisĠ",
  "1701": "71",
  "1702": "qualifi",
  "1703": "districtĠ",
  "1704": "perty",
  "1705": "iss",
  "1706": "Mizoram",
  "1707": "referenceĠ",
  "1708": "Ġinclud",
  "1709": "b)",
  "1710": "Ġ4",
  "1711": "Ten",
  "1712": "1987",
  "1713": "ek",
  "1714": "..Ġ",
  "1715": "OneĠH",
  "1716": "OneĠHundred",
  "1717": "quis",
  "1718": "Ġinter",
  "1719": "lection",
  "1720": "executiveĠ",
  "1721": "essĠ",
  "1722": "Ġmembers",
  "1723": "Houses",
  "1724": ".ĠSpecial",
  "1725": "LA",
  "1726": "pre",
  "1727": "Ġagre",
  "1728": "recommendation",
  "1729": "planation",
  "1730": "Eigh",
  "1731": "ĠaĠc",
  "1732": "edĠtoĠ",
  "1733": "thir",
  "1734": "Ġnot",
  "1735": "—Ġ\n",
  "1736": "ameĠ",
  "1737": "..............................",
  "1738": "Ġde",
  "1739": "betw",
  "1740": "between",
  "1741": "Ap",
  "1742": "out",
  "1743": "ground",
  "1744": "Regulation",
  "1745": ".ĠAp",
  "1746": "o-operativeĠsoci",
  "1747": "ES",
  "1748": "term",
  "1749": "mov",
  "1750": "oneyĠ",
  "1751": "Fin",
  "1752": "propri",
  "1753": "35",
  "1754": "rans",
  "1755": "tation",
  "1756": "itte",
  "1757": "inĠ\n",
  "1758": "expenditureĠ",
  "1759": "expres",
  "1760": "ĠspecifiedĠin",
  "1761": "ParliamentĠmayĠ",
  "1762": "Explanation",
  "1763": "lessĠthan",
  "1764": "ĠasĠ\n",
  "1765": "ĠotherwiseĠ",
  "1766": "notification",
  "1767": "specifiedĠinĠtheĠ",
  "1768": ")ĠAct,Ġ\n",
  "1769": "SubjectĠto",
  "1770": "ParliamentĠbyĠlaw",
  "1771": ")ĠTheĠ",
  "1772": "Ġ(C",
  "1773": "sub-paragraph",
  "1774": "................................Ġ",
  "1775": "RegionalĠCouncil",
  "1776": "CeilingĠ",
  "1777": "Ġamendment",
  "1778": "2015",
  "1779": "og",
  "1780": "employ",
  "1781": "quisition",
  "1782": "Ġmo",
  "1783": "ater",
  "1784": "i)",
  "1785": "DeputyĠChairman",
  "1786": "Ġaccoun",
  "1787": "allyĠ",
  "1788": "28",
  "1789": "trol",
  "1790": "edĠunder",
  "1791": "AndhraĠPradesh",
  "1792": "Act,Ġ197",
  "1793": "Ġab",
  "1794": "pet",
  "1795": "ve",
  "1796": "region",
  "1797": ".ĠTheĠwordsĠ\"",
  "1798": "rules",
  "1799": "declar",
  "1800": "ak",
  "1801": "cas",
  "1802": "ular",
  "1803": "Ġ\nofĠ",
  "1804": "judic",
  "1805": "function",
  "1806": "ision",
  "1807": "itting",
  "1808": "LegislatureĠofĠtheĠStateĠ",
  "1809": "ĠotherĠthan",
  "1810": "oney",
  "1811": "Ma",
  "1812": "purpos",
  "1813": "1-1977",
  "1814": "Ġhis",
  "1815": "State,Ġ",
  "1816": "ond",
  "1817": "shallĠ\n",
  "1818": "1956,Ġs.Ġ29ĠandĠSch.Ġ(w.e.f.Ġ1-11-1956",
  "1819": "ees",
  "1820": "Bound",
  "1821": "ĠPatgramĠM",
  "1822": "IX",
  "1823": "ĠĠĠĠĠ",
  "1824": "uppl",
  "1825": ".ĠCon",
  "1826": "ĠatĠ",
  "1827": "regulation",
  "1828": "sĠtoĠtheĠ",
  "1829": "ublicĠServiceĠ",
  "1830": "Ġpo",
  "1831": "3-1-1977",
  "1832": "a)Ġ",
  "1833": ";Ġor",
  "1834": "griculturalĠ",
  "1835": "membersĠofĠtheĠ",
  "1836": "byĠorder",
  "1837": "aldi",
  "1838": "aldibari",
  "1839": "ĠthisĠ",
  "1840": "21",
  "1841": "mendmentĠ",
  "1842": "mentĠofĠ",
  "1843": "efin",
  "1844": "ileĠ",
  "1845": "36",
  "1846": "level",
  "1847": "fill",
  "1848": "ĠasĠtoĠ",
  "1849": "CouncilĠofĠStates",
  "1850": "qualification",
  "1851": "Ġbefor",
  "1852": "Nation",
  "1853": "sĠto",
  "1854": "Municipalities",
  "1855": "ĠofĠĠ",
  "1856": "ashtr",
  "1857": "ĠHouseĠofĠ",
  "1858": ".Ġ(",
  "1859": "ĠinĠ\n",
  "1860": "ouldĠ",
  "1861": "hel",
  "1862": "mattersĠ",
  "1863": "ĠtoĠ\n",
  "1864": "transfer",
  "1865": "1960",
  "1866": "inh",
  "1867": "cor",
  "1868": "Fif",
  "1869": "conferredĠ",
  "1870": "Ġtheir",
  "1871": "44",
  "1872": "class",
  "1873": "Ġ.—",
  "1874": "ommitte",
  "1875": "ĠtheĠpurposes",
  "1876": "Ġappoint",
  "1877": "litic",
  "1878": "harashtr",
  "1879": "rovin",
  "1880": ";Ġ\n(d",
  "1881": ",Ġs.Ġ2Ġ(w.e.f.Ġ",
  "1882": "aidĠ",
  "1883": "ĠanyĠlaw",
  "1884": "ĠwithĠtheĠ",
  "1885": "ChiefĠJus",
  "1886": ",ĠandĠtheĠ",
  "1887": "Wh",
  "1888": "totalĠ",
  "1889": "PresidentĠmayĠ",
  "1890": "Amendment)ĠAct,Ġ198",
  "1891": "gl",
  "1892": "byĠ\n",
  "1893": "mir",
  "1894": "tinu",
  "1895": "39",
  "1896": "prov",
  "1897": "pla",
  "1898": "HAP",
  "1899": "HAPTER",
  "1900": "encies",
  "1901": "ffic",
  "1902": "UnionĠor",
  "1903": "direction",
  "1904": "Nag",
  "1905": "order",
  "1906": "tinueĠ",
  "1907": "day",
  "1908": "eghal",
  "1909": "eghalay",
  "1910": "Forty-secondĠAmendment)ĠAct,Ġ1976",
  "1911": "deemedĠtoĠbeĠ",
  "1912": ";ĠandĠ\n(",
  "1913": "crib",
  "1914": "timeĠbe",
  "1915": "Ġprev",
  "1916": "tĠtheĠ",
  "1917": "ĠreferredĠtoĠin",
  "1918": "entitl",
  "1919": "Ġ\n4",
  "1920": "ĠasĠaĠ",
  "1921": "HouseĠofĠtheĠPeopleĠ",
  "1922": "*ĠĠĠĠĠĠĠĠĠĠĠĠĠĠĠĠĠĠĠĠĠĠĠĠ",
  "1923": ".ĠEntr",
  "1924": "angaĠ",
  "1925": "inhataĠ",
  "1926": "Kash",
  "1927": "Kashmir",
  "1928": "effectĠ",
  "1929": "ityĠofĠ",
  "1930": "jus",
  "1931": "pend",
  "1932": "tim",
  "1933": "vot",
  "1934": "than",
  "1935": "ĠSC",
  "1936": "ScheduledĠA",
  "1937": "ax",
  "1938": "quiredĠ",
  "1939": "ecom",
  "1940": "ScheduledĠCastes",
  "1941": "tern",
  "1942": "Ġaris",
  "1943": "given",
  "1944": ";Ġ\n(c)Ġ",
  "1945": "ProvidedĠthat",
  "1946": "constru",
  "1947": "6Ġ(",
  "1948": "shallĠnotĠbeĠ",
  "1949": "Ġ6",
  "1950": "hy",
  "1951": "WestĠBengalĠ",
  "1952": ")ĠĠ\n",
  "1953": "district",
  "1954": "ekli",
  "1955": "ekliganj",
  "1956": "RE",
  "1957": "amm",
  "1958": "ammu",
  "1959": "peal",
  "1960": "5.Ġ",
  "1961": "ticeĠ",
  "1962": "Ġoffice",
  "1963": ",Ġre",
  "1964": "pass",
  "1965": "eĠin",
  "1966": "voc",
  "1967": "ator",
  "1968": "ts,Ġ",
  "1969": "cur",
  "1970": "nat",
  "1971": "Ġday",
  "1972": "—Ġ\n(a)ĠtheĠ",
  "1973": "including",
  "1974": "manner",
  "1975": "Ġmonth",
  "1976": "enter",
  "1977": ").Ġ\n5",
  "1978": "land",
  "1979": "laidĠ",
  "1980": "fiveĠ",
  "1981": "SecondĠ",
  "1982": "3Ġ(",
  "1983": "3[",
  "1984": ".ĠAd",
  "1985": "ik",
  "1986": "tection",
  "1987": "nation",
  "1988": "consider",
  "1989": "ancyĠ",
  "1990": "entralĠ",
  "1991": "uditor",
  "1992": "loc",
  "1993": "pension",
  "1994": "act",
  "1995": "ukh",
  "1996": "Meghalay",
  "1997": "vid",
  "1998": "powerĠto",
  "1999": "eĠ\nof",
  "2000": "reason",
  "2001": "shallĠbeĠ\n",
  "2002": ";Ġ",
  "2003": "ĠomittedĠ",
  "2004": "V.—TheĠ",
  "2005": "V.—TheĠUnion",
  "2006": "V.—TheĠUnion)Ġ",
  "2007": "States)Ġ",
  "2008": "9Ġ(",
  "2009": "Hold",
  "2010": "uses",
  "2011": ".O",
  "2012": "ĠAND",
  "2013": "PART",
  "2014": "eign",
  "2015": "Ġ\nin",
  "2016": "eĠofĠtheĠ\n",
  "2017": "electedĠ",
  "2018": "usiness",
  "2019": "ments",
  "2020": "troll",
  "2021": "ĠofĠtheĠState",
  "2022": "hap",
  "2023": "hapter",
  "2024": "eĠfor",
  "2025": "merg",
  "2026": "ĠandĠtheĠ\n",
  "2027": "ĠofĠtheĠFirstĠ",
  "2028": ").",
  "2029": "AmendmentĠ",
  "2030": ",Ġs.Ġ5",
  "2031": "Ġsub-clauseĠ(",
  "2032": "roviso",
  "2033": "specifiedĠinĠ",
  "2034": "ii)Ġ",
  "2035": "ĠthatĠbehalf",
  "2036": "Ever",
  "2037": "ĠorĠunder",
  "2038": "1951",
  "2039": "Keral",
  "2040": "ĠthisĠConstitution",
  "2041": "NotwithstandingĠanythingĠinĠthis",
  "2042": "jo",
  "2043": "following",
  "2044": "21-",
  "2045": "Madhy",
  "2046": "AssemblyĠ",
  "2047": "orth",
  "2048": ").ĠTHEĠCONSTITUTIONĠOFĠĠINDIAĠ\n(PartĠX",
  "2049": "Trans",
  "2050": "Jammu",
  "2051": ".Ġ\n6",
  "2052": "cri",
  "2053": "truc",
  "2054": "omp",
  "2055": "tionĠofĠ",
  "2056": "o-operativeĠsocie",
  "2057": "Ġappointment",
  "2058": "levi",
  "2059": "personsĠ",
  "2060": "unal",
  "2061": "there",
  "2062": "Maharashtr",
  "2063": "Tri",
  "2064": "expression",
  "2065": "[(",
  "2066": "1975",
  "2067": "ParliamentĠmayĠbyĠlaw",
  "2068": "ĠshallĠnotĠbeĠ",
  "2069": "ĠmayĠ",
  "2070": "—Ġ\n(a)",
  "2071": "\n1[",
  "2072": "any",
  "2073": "ĠasĠheĠ",
  "2074": "North",
  "2075": "ScheduleĠtoĠtheĠ",
  "2076": ").ĠTHEĠCONSTITUTIONĠOFĠĠINDIAĠ\n(",
  "2077": "ikk",
  "2078": "ikkim",
  "2079": "ticular",
  "2080": "wor",
  "2081": "Ġinstitution",
  "2082": "geĠ",
  "2083": "Ġsection",
  "2084": "uty",
  "2085": "Ġaffir",
  "2086": "Ġdur",
  "2087": "diss",
  "2088": "owers",
  "2089": "ingĠofĠ",
  "2090": "sitting",
  "2091": "ates",
  "2092": "anceĠof",
  "2093": "ĠandĠs",
  "2094": "Auditor",
  "2095": "eĠofĠaĠ",
  "2096": "Ġoperation",
  "2097": "ĠauthorityĠ",
  "2098": "rag",
  "2099": "pram",
  "2100": "pramukh",
  "2101": "List",
  "2102": "Tripur",
  "2103": "territoryĠ",
  "2104": "ĠofĠthisĠ\nConstitution",
  "2105": "withinĠtheĠ",
  "2106": "ThereĠ",
  "2107": "ĠthatĠtheĠ",
  "2108": "tis",
  "2109": "period",
  "2110": "Al",
  "2111": "Alter",
  "2112": "ary,Ġ",
  "2113": "byĠlaw,Ġ",
  "2114": "1974",
  "2115": "Spec",
  "2116": "VI.—TheĠ",
  "2117": "VI.—TheĠStates)Ġ",
  "2118": "UttarĠPradesh",
  "2119": "Holding",
  "2120": "ĠofĠIndiaĠ",
  "2121": "der,Ġ",
  "2122": "ĠĠĠĠĠĠĠĠĠĠĠĠĠĠĠĠĠĠĠĠĠĠĠĠĠĠĠĠĠĠĠĠ",
  "2123": "who",
  "2124": "ParliamentĠto",
  "2125": "8.Ġ",
  "2126": "proceeding",
  "2127": "Ġapplication",
  "2128": ".Ġ\n4",
  "2129": "omic",
  "2130": "Ġconsider",
  "2131": "alĠs",
  "2132": "Ġ14",
  "2133": "Ġdeclar",
  "2134": "Auditor-",
  "2135": "Ġpurpos",
  "2136": "ĠwhichĠ",
  "2137": "call",
  "2138": "xx",
  "2139": "ublicĠServiceĠCommission",
  "2140": "Election",
  "2141": "ibleĠ",
  "2142": "languag",
  "2143": "litical",
  "2144": "ĠofĠth",
  "2145": "wasĠ",
  "2146": "tizen",
  "2147": "]Ġ",
  "2148": "Ġ\nanyĠ",
  "2149": "e)Ġ",
  "2150": "fied",
  "2151": "constitut",
  "2152": "specif",
  "2153": "ĠclauseĠ(1)Ġ",
  "2154": "direct",
  "2155": ".Ġ\n(3)ĠTheĠ",
  "2156": "dateĠon",
  "2157": "az",
  "2158": "acc",
  "2159": "ung",
  "2160": "s.",
  "2161": ".ĠPro",
  "2162": "ry",
  "2163": "ener",
  "2164": "ĠandĠallowanc",
  "2165": "vileg",
  "2166": "oneyĠBill",
  "2167": "33",
  "2168": "issu",
  "2169": "194",
  "2170": "Emerg",
  "2171": "articleĠ",
  "2172": "Rajpramukh",
  "2173": "IndianĠ",
  "2174": "Meghalaya",
  "2175": "ifĠheĠ",
  "2176": "Ġmaking",
  "2177": "5)Ġ",
  "2178": "cluding",
  "2179": "elong",
  "2180": "ĠtheĠcons",
  "2181": "10-",
  "2182": "ĠofĠany",
  "2183": "sameĠ",
  "2184": "),Ġs.Ġ4",
  "2185": "fig",
  "2186": "respond",
  "2187": "Bom",
  "2188": "Bomb",
  "2189": "ĠofĠ1971",
  "2190": "entryĠ",
  "2191": "CeilingĠonĠ",
  "2192": "amari",
  "2193": "contain",
  "2194": "angla",
  "2195": "angladesh",
  "2196": "enti",
  "2197": "Ġman",
  "2198": "fores",
  "2199": "sec",
  "2200": "President,Ġ",
  "2201": "Ġproceeding",
  "2202": "RO",
  "2203": "Ġ15",
  "2204": "HED",
  "2205": "HEDU",
  "2206": "HEDULE",
  "2207": "pris",
  "2208": "PartĠB",
  "2209": "ceiv",
  "2210": "Ġlaw",
  "2211": "tur",
  "2212": "wereĠ",
  "2213": "territoriesĠspecifiedĠin",
  "2214": "StateĠor",
  "2215": "exceptĠ",
  "2216": "whereĠ",
  "2217": ",ĠanyĠ",
  "2218": "EveryĠ",
  "2219": "fromĠtimeĠ",
  "2220": "1963",
  "2221": "Ġauthoris",
  "2222": "ĠthereĠ",
  "2223": "lawĠmadeĠbyĠParliament",
  "2224": "modification",
  "2225": "Ġam",
  "2226": "toĠtheĠ\n",
  "2227": "totalĠnumber",
  "2228": "ĠReorganisationĠAct,Ġ",
  "2229": ",ĠbutĠ",
  "2230": "AĠ",
  "2231": "Eas",
  "2232": "MadhyaĠ",
  "2233": "athab",
  "2234": "Bangladesh",
  "2235": "ersons",
  "2236": ".ĠPowerĠofĠ",
  "2237": "nu",
  "2238": ".ĠEx",
  "2239": "Ġact",
  "2240": "Ġ\nor",
  "2241": "executiveĠpower",
  "2242": ".Ġ",
  "2243": "ember",
  "2244": "din",
  "2245": "cer",
  "2246": "ditionsĠofĠs",
  "2247": "wardĠ",
  "2248": "pop",
  "2249": "population",
  "2250": "evelopment",
  "2251": "jor",
  "2252": "chalĠ",
  "2253": "chalĠPradesh",
  "2254": "teen",
  "2255": "shallĠapplyĠ",
  "2256": "subjectĠtoĠtheĠprovisions",
  "2257": "Ġshall,Ġ",
  "2258": "soon",
  "2259": ".ĠTHEĠCONSTITUTIONĠOFĠĠINDIAĠ\n(PartĠ",
  "2260": "whichĠ",
  "2261": "*ĠĠĠĠĠĠĠĠ",
  "2262": "Ġarticle",
  "2263": "upon",
  "2264": "SubjectĠtoĠtheĠprovisions",
  "2265": ".O.Ġ",
  "2266": "suchĠs",
  "2267": "BombayĠ",
  "2268": "reasĠ(",
  "2269": "SpecialĠ",
  "2270": "illar",
  "2271": "Ġtherein",
  "2272": "Ġagain",
  "2273": "ĠorĠre",
  "2274": "villa",
  "2275": "position",
  "2276": "ourts",
  "2277": "omptroll",
  "2278": "omptroller",
  "2279": "Legislature",
  "2280": "ĠmoreĠ",
  "2281": "judgment",
  "2282": "ordin",
  "2283": "madeĠbyĠtheĠ",
  "2284": "coll",
  "2285": "Servic",
  "2286": "territorial",
  "2287": "ĠaĠState",
  "2288": "jar",
  "2289": ".ĠSubs.ĠbyĠs.Ġ",
  "2290": ";Ġ\n",
  "2291": "8-",
  "2292": "Ġpres",
  "2293": "lessĠ",
  "2294": ".—Ġ(1",
  "2295": ",ĠbeĠ",
  "2296": "ĠorĠanyĠ",
  "2297": "mention",
  "2298": "prescrib",
  "2299": "2011",
  "2300": "use",
  "2301": ",Ġibid.Ġ(w.e.f.Ġ",
  "2302": "ĠtheĠPresidentĠ",
  "2303": "expiration",
  "2304": "namely",
  "2305": "namely:",
  "2306": "ĠatĠanyĠ",
  "2307": "2014",
  "2308": "on-",
  "2309": "Eastern",
  "2310": ")ĠAct,Ġ1971",
  "2311": "autonomousĠ",
  "2312": "MadhyaĠPradesh",
  "2313": "ĠLandĠReformsĠ(",
  "2314": "aryĠP",
  "2315": "hur",
  "2316": "hurung",
  "2317": "hurungamari",
  "2318": "sĠof",
  "2319": "new",
  "2320": "3.Ġ",
  "2321": "tizens",
  "2322": "tent",
  "2323": "6.Ġ",
  "2324": "fair",
  "2325": "inci",
  "2326": "9A",
  "2327": "economic",
  "2328": "dres",
  "2329": "resign",
  "2330": "aĠ\n",
  "2331": "Ġaddition",
  "2332": "esĠon",
  "2333": "25",
  "2334": "Auditor-General",
  "2335": "ĠanyĠmatter",
  "2336": "Ġbet",
  "2337": "Ġbetw",
  "2338": "Ġbetween",
  "2339": "ementĠ",
  "2340": "sal",
  "2341": "ĠandĠin",
  "2342": "bil",
  "2343": "ack",
  "2344": "ackwardĠ",
  "2345": "roclamation",
  "2346": "sĠinĠtheĠ",
  "2347": "Gu",
  "2348": "Gujar",
  "2349": "StateĠofĠAssam",
  "2350": "Sikkim",
  "2351": "1950",
  "2352": ".Ġ—TheĠ",
  "2353": "e.]",
  "2354": "ĠotherĠ",
  "2355": "Thirty-",
  "2356": "ConstitutionĠĠ(",
  "2357": "fif",
  "2358": "etter",
  "2359": "nin",
  "2360": "ĠsoĠfar",
  "2361": "toĠanyĠ",
  "2362": "whol",
  "2363": "fromĠtimeĠtoĠ",
  "2364": "ĠthatĠ\n",
  "2365": "ĠaĠs",
  "2366": ",Ġall",
  "2367": "ĠthatĠitĠ",
  "2368": ")ĠAct,Ġ196",
  "2369": "may,ĠbyĠlaw,Ġ",
  "2370": "t.Ġ",
  "2371": "hisĠofficeĠ",
  "2372": "\"ĠomittedĠbyĠtheĠConstitutionĠ(",
  "2373": "ĠamendmentĠ",
  "2374": "ĠNo.Ġ",
  "2375": "distric",
  "2376": "SpecialĠP",
  "2377": "Rajas",
  "2378": "aryĠPillar",
  "2379": "Haldibari",
  "2380": "ugh",
  "2381": "TIC",
  "2382": "withĠtheĠ",
  "2383": "La",
  "2384": "Ġop",
  "2385": "dif",
  "2386": "PresidentĠto",
  "2387": "intĠ",
  "2388": "Judges",
  "2389": "existingĠlaw",
  "2390": "VIII",
  "2391": "Ġbo",
  "2392": ".ĠSpecialĠprovision",
  "2393": "ven",
  "2394": "usto",
  "2395": "trac",
  "2396": "TH",
  "2397": "ĠasĠtoĠtheĠ",
  "2398": "StateĠ\n",
  "2399": "Gujarat",
  "2400": ".—Ġ",
  "2401": "Ġ\n______________________________________________Ġ\n1.ĠSubs.ĠbyĠtheĠConstitutionĠ(",
  "2402": "eitherĠHouseĠofĠ",
  "2403": ".Ġ\n(2)ĠNo",
  "2404": "letter",
  "2405": "FirstĠAmendment)ĠAct,Ġ",
  "2406": "edĠtheĠ",
  "2407": "auseĠ",
  "2408": "ĠsuchĠd",
  "2409": "rovidedĠ",
  "2410": "limit",
  "2411": "AlterationĠofĠ",
  "2412": "dem",
  "2413": "shallĠbeĠtheĠ",
  "2414": "ous",
  "2415": "figur",
  "2416": "antĠ",
  "2417": "expirationĠofĠ",
  "2418": "2003",
  "2419": "ConsolidatedĠFundĠofĠIndia",
  "2420": "2Ġ(",
  "2421": "7-",
  "2422": ".]Ġ",
  "2423": "North-",
  "2424": "Panchayats",
  "2425": "Fix",
  "2426": "FixationĠofĠ",
  "2427": "Frag",
  "2428": "BoundaryĠPillar",
  "2429": "OneĠHundredĠandĠ",
  "2430": "ĠandĠKashmir",
  "2431": "Order,Ġ",
  "2432": "Omitted",
  "2433": "Ġareas",
  "2434": "Indian",
  "2435": "Righ",
  "2436": "romo",
  "2437": "Ġcontain",
  "2438": "ces",
  "2439": "2.ĠTheĠ",
  "2440": "during",
  "2441": "74",
  "2442": "alariesĠandĠallowanc",
  "2443": "judicial",
  "2444": "reservedĠfor",
  "2445": "ĠSCHEDULE",
  "2446": "court",
  "2447": "area",
  "2448": "istrib",
  "2449": "curr",
  "2450": "do",
  "2451": "OmittedĠbyĠtheĠ",
  "2452": "eĠofĠIndia",
  "2453": "aid",
  "2454": "ThereĠshallĠbeĠ",
  "2455": "ĠofĠthatĠ",
  "2456": "rovidedĠfurther",
  "2457": "4).Ġ\n",
  "2458": "when",
  "2459": ";Ġ\n(b)ĠtheĠ",
  "2460": "Ġ1***",
  "2461": "pay",
  "2462": "ĠofĠall",
  "2463": "ĠisĠ",
  "2464": "latingĠtoĠtheĠ",
  "2465": "onstituencies",
  "2466": "references",
  "2467": "liticalĠpar",
  "2468": "thĠSchedule)ĠĠ",
  "2469": ")ĠĠ\nĠ3",
  "2470": "ĠPatgramĠMekliganj",
  "2471": "stitut",
  "2472": "reeĠ",
  "2473": "ivil",
  "2474": "itsĠ\n",
  "2475": "MoneyĠBill",
  "2476": "ind",
  "2477": "Ġclass",
  "2478": "eting",
  "2479": "cre",
  "2480": "EmergencyĠ",
  "2481": "ours",
  "2482": "ell",
  "2483": "tric",
  "2484": "Ġpur",
  "2485": "Ġins",
  "2486": "empor",
  "2487": "Administr",
  "2488": "thĠday",
  "2489": "Ġwithin",
  "2490": "suchĠlaw",
  "2491": "12-",
  "2492": "ett",
  "2493": "asĠ\n",
  "2494": "Tw",
  "2495": "a)",
  "2496": "local",
  "2497": "inion",
  "2498": "underĠclauseĠ(",
  "2499": "ĠforĠtheĠtimeĠbe",
  "2500": "ChiefĠJustic",
  "2501": "takeĠ",
  "2502": "ĠtoĠs",
  "2503": "renumber",
  "2504": "cher",
  "2505": "appointedĠ",
  "2506": "ĠpassedĠbyĠtheĠ",
  "2507": "North-Eastern",
  "2508": "reasĠ(Reorganisation",
  "2509": ")Ġ“",
  "2510": ".ĠEntriesĠ",
  "2511": "ĠofĠ\nIndia",
  "2512": "Part",
  "2513": "TICLE",
  "2514": ".Ġ\nĠĠ",
  "2515": "ĠarticlesĠ",
  "2516": "Four",
  "2517": ".Ġ\nĠ3",
  "2518": "whileĠ",
  "2519": "0.Ġ",
  "2520": "Ġob",
  "2521": "dissolution",
  "2522": "privileg",
  "2523": "omptrollerĠandĠ",
  "2524": "LegislatureĠ",
  "2525": "OU",
  "2526": "ru",
  "2527": "ff",
  "2528": "ĠanĠautonomousĠ",
  "2529": "isĠin",
  "2530": "put",
  "2531": "StatesĠ",
  "2532": "money",
  "2533": "ĠonĠtheĠ",
  "2534": "civil",
  "2535": "LegislativeĠ\n",
  "2536": "ĠtheyĠ",
  "2537": "Go",
  "2538": ",Ġibid.",
  "2539": "Ġcl",
  "2540": "periodĠ",
  "2541": "Ġdo",
  "2542": "necessary",
  "2543": "ĠaĠperson",
  "2544": "unlessĠ",
  "2545": "shallĠnotĠ",
  "2546": "Ġparticular",
  "2547": "adv",
  "2548": ")ĠandĠ(",
  "2549": "ĠshallĠbeĠ\n",
  "2550": "thing",
  "2551": ")Ġ(",
  "2552": "5[",
  "2553": "-4-",
  "2554": "Ġ(w.e.f.Ġ1-",
  "2555": "duty",
  "2556": "ĠanyĠStateĠ",
  "2557": "subs",
  "2558": "Ġwill",
  "2559": "major",
  "2560": "noĠ",
  "2561": "decision",
  "2562": "Forty-fourthĠAmendment)ĠAct,Ġ",
  "2563": "Forty-fourthĠAmendment)ĠAct,Ġ1978",
  "2564": "action",
  "2565": "kno",
  "2566": "nomin",
  "2567": "Abolition",
  "2568": "6).Ġ\n",
  "2569": "reasĠ(Reorganisation)ĠAct,Ġ1971",
  "2570": "21-1-197",
  "2571": "Ġapprov",
  "2572": ")ĠofĠparagraph",
  "2573": "Ġ(1)",
  "2574": "thĠSch",
  "2575": "ateĠtheĠ",
  "2576": "betweenĠtheĠ",
  "2577": "plication",
  "2578": "ious",
  "2579": "incipl",
  "2580": "toĠs",
  "2581": "elfar",
  "2582": "mon",
  "2583": "ance",
  "2584": "Ġaddres",
  "2585": "notwithstanding",
  "2586": "entĠto",
  "2587": "financialĠ",
  "2588": "Ġ16",
  "2589": "functions",
  "2590": "JudgeĠ",
  "2591": "IR",
  "2592": ".Ġ\n243Z",
  "2593": "ning",
  "2594": "ĠT",
  "2595": "UnionĠandĠtheĠ",
  "2596": "tsĠin",
  "2597": "Ġaffec",
  "2598": "IV",
  "2599": "exten",
  "2600": "ElectionĠCommission",
  "2601": "Ġcommun",
  "2602": "ackwardĠclass",
  "2603": "Nagal",
  "2604": "Kar",
  "2605": "Tripura",
  "2606": "olv",
  "2607": "Ġconstitut",
  "2608": "ereĠtheĠ",
  "2609": "Ġ\n3[",
  "2610": "InĠthis",
  "2611": "itizen",
  "2612": "NotwithstandingĠanythingĠin",
  "2613": "ĠafterĠtheĠ",
  "2614": "thingĠinĠthisĠarticleĠ",
  "2615": "requi",
  "2616": "immediatelyĠbeforeĠtheĠ\n",
  "2617": "Nine",
  "2618": "dĠ\n",
  "2619": "Ġ(w.e.f.Ġ20-6-1979",
  "2620": "lawĠmadeĠbyĠtheĠ",
  "2621": "becom",
  "2622": "Ġ\ns",
  "2623": "referredĠtoĠin",
  "2624": "renumberedĠasĠ",
  "2625": "55",
  "2626": "Di",
  "2627": "ultation",
  "2628": "publicĠno",
  "2629": "publicĠnotification",
  "2630": "ĠofĠsection",
  "2631": "Ġ20",
  "2632": "9-2016",
  "2633": "Ġregion",
  "2634": "entriesĠ",
  "2635": "SixthĠSchedule)ĠĠ",
  "2636": "ĠLandĠReformsĠ(FixationĠofĠ",
  "2637": "22",
  "2638": "JammuĠandĠKashmir",
  "2639": "respectiv",
  "2640": "trospec",
  "2641": "ARTICLE",
  "2642": "ARTICLES",
  "2643": "bound",
  "2644": "ii)",
  "2645": "TA",
  "2646": "reed",
  "2647": "tention",
  "2648": "Ġpay",
  "2649": "esĠfor",
  "2650": "valid",
  "2651": ".ĠRes",
  "2652": "triction",
  "2653": "ĠofĠoffic",
  "2654": "9.Ġ",
  "2655": "HouseĠofĠtheĠPeople",
  "2656": "seat",
  "2657": "making",
  "2658": "Ġoath",
  "2659": "Ġappeal",
  "2660": "ĠChapter",
  "2661": "collec",
  "2662": "emp",
  "2663": "ĠfromĠ",
  "2664": "sum",
  "2665": "NG",
  "2666": "tribunal",
  "2667": "represent",
  "2668": "backwardĠclass",
  "2669": "PartĠA",
  "2670": "Domin",
  "2671": "ListĠI",
  "2672": "mayĠ\n",
  "2673": "Ġform",
  "2674": "ConstitutionĠ(SeventhĠAmendment)ĠAct,Ġ",
  "2675": "Ġcommencement",
  "2676": "byĠaĠ",
  "2677": "Ninety-",
  "2678": "ingĠto",
  "2679": "outĠ",
  "2680": ",ĠaĠ",
  "2681": "Ġ“",
  "2682": "ĠshallĠhaveĠ",
  "2683": "amoun",
  "2684": "ful",
  "2685": "differ",
  "2686": "thĠAmendment)ĠAct,Ġ\n",
  "2687": "ance,Ġ",
  "2688": "eitherĠ",
  "2689": ",Ġuntil",
  "2690": "eigh",
  "2691": "aman",
  "2692": "Chairperson",
  "2693": "Acquisition",
  "2694": "This",
  "2695": "rough",
  "2696": "Law",
  "2697": "tentsĠ\n",
  "2698": "tentsĠ\nĠ\n",
  "2699": "tentsĠ\nĠ\nĠĠĠ",
  "2700": "tentsĠ\nĠ\nĠĠĠARTICLES",
  "2701": "tentsĠ\nĠ\nĠĠĠARTICLESĠ(",
  "2702": "Ġbeing",
  "2703": "andĠ\n",
  "2704": "7.Ġ",
  "2705": "A.Ġ",
  "2706": "ĠPART",
  "2707": "ustr",
  "2708": "ĠorĠaffir",
  "2709": "ĠorĠaffirmation",
  "2710": "CouncilĠofĠMinister",
  "2711": "Ġadv",
  "2712": "GovernmentĠ",
  "2713": "HousesĠofĠ",
  "2714": "remov",
  "2715": "bothĠ",
  "2716": "cess",
  "2717": "repor",
  "2718": ".ĠAr",
  "2719": "FinanceĠ",
  "2720": "Ġbod",
  "2721": "-StateĠ",
  "2722": "iousĠ",
  "2723": "tiesĠ",
  "2724": "goods",
  "2725": "ditionsĠofĠservic",
  "2726": "ĠtheĠcaseĠof",
  "2727": "Ġlanguag",
  "2728": "otherĠ",
  "2729": "XXI",
  "2730": "Ġdetermin",
  "2731": "Dominion",
  "2732": "divid",
  "2733": ",ĠorĠ",
  "2734": "ink",
  "2735": "Ġpart",
  "2736": ").ĠĠ\n2",
  "2737": "s.Ġ—(1)Ġ",
  "2738": "notĠlessĠthan",
  "2739": "Ġ7",
  "2740": "foreg",
  "2741": "forego",
  "2742": "tra",
  "2743": "dedĠbyĠtheĠ",
  "2744": "thirdĠ",
  "2745": "Eighty-",
  "2746": "inten",
  "2747": "Ġ\n(2)Ġ",
  "2748": "own",
  "2749": "1977",
  "2750": "ital",
  "2751": "2).Ġ\n",
  "2752": "ĠinĠrespect",
  "2753": "Ġfrom",
  "2754": "15-",
  "2755": ".Ġ\n1[",
  "2756": "edĠtoĠtheĠ",
  "2757": "ublish",
  "2758": "uponĠ",
  "2759": "ĠthatĠheĠ",
  "2760": "ParliamentĠor",
  "2761": ".ĠTheĠwordsĠ\"orĠ",
  "2762": ".ĠTheĠwordsĠ\"orĠRajpramukh",
  "2763": "ĠtheĠper",
  "2764": "ninthĠAmendment)ĠAct,Ġ",
  "2765": "29ĠandĠSch",
  "2766": "ĠanyĠsuch",
  "2767": "rup",
  "2768": "drawn",
  "2769": "North-EasternĠA",
  "2770": "PublicĠServiceĠCommission",
  "2771": "ĠreferredĠto",
  "2772": "16-9-2016",
  "2773": "THEĠCONSTITUTIONĠOFĠĠINDIAĠ\n(PartĠX",
  "2774": "ĠBod",
  "2775": "ke",
  "2776": "ationĠ",
  "2777": "pendi",
  "2778": "pendix",
  "2779": "TS",
  "2780": "1.Ġ",
  "2781": "Nam",
  "2782": "citizens",
  "2783": "hib",
  "2784": "rightsĠ",
  "2785": "Ġcases",
  "2786": "ageĠ",
  "2787": "interes",
  "2788": "co-operativeĠsocie",
  "2789": "Ġ\n5",
  "2790": ".Ġ\n5",
  "2791": "eneralĠ",
  "2792": "Offic",
  "2793": "powersĠ",
  "2794": "8.ĠTheĠ",
  "2795": "latingĠtoĠ",
  "2796": "elector",
  "2797": "board",
  "2798": "compris",
  "2799": "ServicesĠ",
  "2800": "SI",
  "2801": "forĠtheĠ\n",
  "2802": "National",
  "2803": "Ġissu",
  "2804": "Ġofficer",
  "2805": "Provin",
  "2806": "All",
  "2807": "ember,Ġ",
  "2808": ":Ġ\nProvidedĠthatĠno",
  "2809": "partĠthereof",
  "2810": "main",
  "2811": "vour",
  "2812": "nection",
  "2813": "govern",
  "2814": "abl",
  "2815": ";Ġ\n(d)Ġ",
  "2816": "thanĠ",
  "2817": "sĠshallĠbeĠ",
  "2818": "c)",
  "2819": "heldĠ",
  "2820": "Ġ\n\"",
  "2821": "ĠmadeĠbyĠtheĠ",
  "2822": "chargedĠ",
  "2823": "NotwithstandingĠanythingĠinĠthisĠConstitution",
  "2824": "commun",
  "2825": "Ġ\n(w.e.f.Ġ1-",
  "2826": "Ġfunc",
  "2827": "Ġmanner",
  "2828": "0-",
  "2829": "PresidentĠmay,Ġ",
  "2830": "Ġabs",
  "2831": "will",
  "2832": "pointedĠbyĠtheĠ",
  "2833": "ifĠtheĠ",
  "2834": ",ĠasĠtheĠcaseĠmayĠbe,Ġ",
  "2835": "*ĠĠĠĠĠĠĠĠĠĠĠĠĠĠĠĠĠĠ",
  "2836": "CourtĠ",
  "2837": "Ġ(81",
  "2838": "Ġins.ĠbyĠtheĠConstitutionĠ(",
  "2839": "Oriss",
  "2840": "ĠBodaĠ",
  "2841": "DinhataĠ",
  "2842": "not",
  "2843": "Ġmade",
  "2844": "Appendix",
  "2845": "NI",
  "2846": "OR",
  "2847": "eĠforĠtheĠ",
  "2848": "cid",
  "2849": "cident",
  "2850": ".Ġ\n9",
  "2851": "employment",
  "2852": "tĠtoĠbeĠ",
  "2853": "3.ĠTheĠ",
  "2854": "respects",
  "2855": "2.Ġ",
  "2856": "ensus",
  "2857": "ationĠandĠ",
  "2858": "voting",
  "2859": "Ġwhen",
  "2860": "procedureĠ",
  "2861": "HAPTERĠ",
  "2862": "ourt,Ġ",
  "2863": "omptrollerĠandĠAuditor-General",
  "2864": "ĠofĠaĠState",
  "2865": "ĠMinister",
  "2866": "HighĠ\nC",
  "2867": "sĠwithĠrespectĠto",
  "2868": "ĠbyĠ\n",
  "2869": "ĠanyĠotherĠ",
  "2870": ".ĠTax",
  "2871": "UnionĠandĠtheĠStates",
  "2872": "edĠandĠ",
  "2873": "water",
  "2874": "vacan",
  "2875": "sĠforĠtheĠ",
  "2876": "holding",
  "2877": "ngl",
  "2878": "ĠwithĠrespectĠtoĠtheĠ",
  "2879": "Goa",
  "2880": "ĠforĠtheĠ\n",
  "2881": "ĠhasĠ",
  "2882": ";ĠorĠ\n(",
  "2883": "commencementĠofĠthisĠ\nConstitution",
  "2884": "ĠtheĠ\nprovisions",
  "2885": "Ġcompet",
  "2886": ".Ġ—(1)ĠTheĠ",
  "2887": "Twenty-",
  "2888": "clauseĠ(1)",
  "2889": "ĠofĠanyĠ\n",
  "2890": "fromĠtimeĠtoĠtimeĠ",
  "2891": "byĠ\ntheĠ",
  "2892": "isting",
  "2893": "appropri",
  "2894": "wouldĠ",
  "2895": ",Ġ\ntheĠ",
  "2896": "8Ġ(",
  "2897": "entitledĠto",
  "2898": "portion",
  "2899": ":Ġ\nProvidedĠthatĠtheĠ",
  "2900": "ĠwhichĠheĠ",
  "2901": "fourthĠAmendment)ĠAct,Ġ",
  "2902": "GovernorĠ1***",
  "2903": "\"ĠomittedĠbyĠtheĠConstitutionĠ(Seven",
  "2904": "discharg",
  "2905": "extend",
  "2906": "1***",
  "2907": "\"Ġ(w.e.f.Ġ1-",
  "2908": "ĠofĠseatsĠ",
  "2909": ")Ġ\nAct,Ġ",
  "2910": "1Ġ(",
  "2911": "ceip",
  "2912": "sh",
  "2913": "approv",
  "2914": "ĠappointedĠ",
  "2915": "oneĠor",
  "2916": "ĠofĠ\nth",
  "2917": "ĠofĠtheĠConstitutionĠ(",
  "2918": "ĠofĠ1971),Ġs.Ġ",
  "2919": "respondingĠ",
  "2920": "371",
  "2921": "ScheduleĠtoĠtheĠConstitutionĠ(",
  "2922": "Ġsub-paragraphĠ(",
  "2923": "District",
  "2924": "THEĠCONSTITUTIONĠOFĠĠINDIAĠ\n(SixthĠSchedule)ĠĠ",
  "2925": "CeilingĠonĠLand",
  "2926": "ĠBodaĠHaldibari",
  "2927": "ConstitutionĠ\n(",
  "2928": "trospectiveĠ",
  "2929": "vol",
  "2930": "relig",
  "2931": "reedom",
  "2932": "detention",
  "2933": "alĠinstitution",
  "2934": "effectĠto",
  "2935": "pol",
  "2936": "villageĠ",
  "2937": "alĠp",
  "2938": "5.ĠTheĠ",
  "2939": "Ġconsideration",
  "2940": "6.ĠTheĠ",
  "2941": "commit",
  "2942": "inĠrelationĠto",
  "2943": "ances",
  "2944": "CentralĠ",
  "2945": "UnionĠterritories",
  "2946": "vi",
  "2947": "alĠc",
  "2948": "67",
  "2949": "Ġprof",
  "2950": "control",
  "2951": "tig",
  "2952": "unj",
  "2953": "unjab",
  "2954": "cedur",
  "2955": "vers",
  "2956": "JudgesĠofĠtheĠ",
  "2957": "ityĠofĠtheĠ",
  "2958": ",ĠthatĠ",
  "2959": "Ġafores",
  "2960": "ĠofĠhis",
  "2961": "thĠdayĠofĠ",
  "2962": "eĠofĠhis",
  "2963": "turn",
  "2964": "Ġthey",
  "2965": "Ġprevent",
  "2966": "ĠĠ(w.e.f.Ġ",
  "2967": "4)",
  "2968": "partĠofĠtheĠ",
  "2969": "esĠto",
  "2970": "thatĠ",
  "2971": "Ġaccording",
  "2972": "shallĠnot",
  "2973": "Madra",
  "2974": "13-4-",
  "2975": "means",
  "2976": "ĠrenumberedĠasĠ",
  "2977": "tingĠtheĠ",
  "2978": "yĠofĠ",
  "2979": "whichĠtheĠ",
  "2980": "ĠisĠso",
  "2981": "thĠ\nAmendment)ĠAct,Ġ",
  "2982": "ĠcauseĠ",
  "2983": "ixĠmonth",
  "2984": "Ġpower",
  "2985": "chos",
  "2986": "chosen",
  "2987": "Daman",
  "2988": "Diu",
  "2989": "3).Ġ\n",
  "2990": "ĠshallĠapplyĠ",
  "2991": "onlyĠ",
  "2992": "fees",
  "2993": "stat",
  "2994": "-2-",
  "2995": "Ġ(C.O.Ġ",
  "2996": "],Ġ",
  "2997": "GovernorĠshall",
  "2998": "LegislativeĠAssemblyĠ",
  "2999": "5Ġ(",
  "3000": "1970",
  "3001": "North-EasternĠAreasĠ(Reorganisation)ĠAct,Ġ1971",
  "3002": "s;",
  "3003": "itsĠapplication",
  "3004": "Paragraph",
  "3005": "sectionĠ(",
  "3006": "ĠofĠthisĠparagraph",
  "3007": "ĠĠ................................Ġ",
  "3008": ".ĠCh",
  "3009": "TamilĠNaduĠActĠ",
  "3010": "Fragment",
  "3011": "LI",
  "3012": "PARTĠ",
  "3013": ".ĠRigh",
  "3014": "eignĠ",
  "3015": ",Ġetc",
  "3016": "prac",
  "3017": "ĠofĠlaw",
  "3018": "ĠofĠan",
  "3019": "edĠinĠ\n",
  "3020": "Ġpublic",
  "3021": "agement",
  "3022": "Vice-President",
  "3023": ",ĠorĠto",
  "3024": "isĠunder",
  "3025": "quor",
  "3026": "cedure",
  "3027": "ĠregardĠ",
  "3028": "38",
  "3029": "Legislatures",
  "3030": "twoĠor",
  "3031": "UnionĠ\n",
  "3032": "respons",
  "3033": "FinanceĠCommission",
  "3034": "ĠofĠEmergencyĠ",
  "3035": "tradeĠor",
  "3036": "distrib",
  "3037": "PartĠBĠofĠtheĠFirstĠ",
  "3038": "SIONS",
  "3039": "vest",
  "3040": "elig",
  "3041": "eligibleĠ",
  "3042": "seatsĠ",
  "3043": "vestig",
  "3044": "ĠProclamation",
  "3045": "PartĠIII",
  "3046": "aptation",
  "3047": "ĠcontinueĠ",
  "3048": "gh",
  "3049": ".Ġ\nExplanation",
  "3050": ";ĠorĠ\n(b)Ġ",
  "3051": "entĠ\n",
  "3052": ":Ġ",
  "3053": "foregoing",
  "3054": "continueĠ",
  "3055": "theĠ\n",
  "3056": ",—Ġ\n(a)Ġ",
  "3057": "noti",
  "3058": "ĠanyĠprovision",
  "3059": "comp",
  "3060": "except",
  "3061": "\n(2)Ġ",
  "3062": "rovidedĠfurtherĠthat",
  "3063": "sub-clauseĠ(",
  "3064": "ulating",
  "3065": "Ġmodification",
  "3066": "\"ĠomittedĠ",
  "3067": ",Ġincluding",
  "3068": "Name",
  "3069": "olic",
  "3070": "powerĠtoĠmakeĠ",
  "3071": "ay,Ġ",
  "3072": "ItĠ",
  "3073": "Ġyears",
  "3074": "ondi",
  "3075": "ondicher",
  "3076": "1-10-",
  "3077": "yearsĠfromĠtheĠ",
  "3078": "edĠbyĠParliamentĠbyĠlaw",
  "3079": "PresidentĠshall",
  "3080": "ys",
  "3081": "elected",
  "3082": "ultationĠwithĠtheĠ",
  "3083": "HouseĠorĠ",
  "3084": "fter",
  "3085": "ĠrelationĠtoĠtheĠ",
  "3086": "underĠthisĠConstitution",
  "3087": "said",
  "3088": "ĠofĠ1969",
  "3089": "Ġ1)",
  "3090": "beforeĠsuch",
  "3091": "GovernmentĠofĠ",
  "3092": "uits",
  "3093": "),Ġs.Ġ5",
  "3094": "SeventhĠSchedule",
  "3095": "Tempor",
  "3096": "Rajasthan",
  "3097": "ĠofĠ195",
  "3098": "4Ġ(",
  "3099": "amendment",
  "3100": "ĠU",
  "3101": "e,",
  "3102": "clauses",
  "3103": "ĠOr",
  "3104": ".Ġ\n8",
  "3105": "ĠĠĠĠ\n",
  "3106": "MEN",
  "3107": "enfor",
  "3108": "TIV",
  "3109": "ĠcontainedĠin",
  "3110": "just",
  "3111": "ibil",
  "3112": "sĠforĠ",
  "3113": "4.ĠTheĠ",
  "3114": "ingĠtheĠ\n",
  "3115": "sĠrelatingĠto",
  "3116": "ductĠofĠ",
  "3117": "business",
  "3118": "9.ĠTheĠ",
  "3119": "embers",
  "3120": "committe",
  "3121": ".ĠAppointment",
  "3122": "igin",
  "3123": "clus",
  "3124": "sĠfrom",
  "3125": "posal",
  "3126": "pretation",
  "3127": "VII",
  "3128": "meeting",
  "3129": "legis",
  "3130": "only",
  "3131": "disput",
  "3132": "ĠandĠĠ",
  "3133": "ĠtheĠpublic",
  "3134": "edĠbyĠ\n",
  "3135": "imposition",
  "3136": "ĠPRO",
  "3137": "se",
  "3138": "liabil",
  "3139": "00",
  "3140": "commer",
  "3141": "ingĠout",
  "3142": "bas",
  "3143": "Ġce",
  "3144": "ĠceaseĠ",
  "3145": "lass",
  "3146": "oci",
  "3147": "Ġpost",
  "3148": "Rul",
  "3149": "rea",
  "3150": "una",
  "3151": "edĠorĠ",
  "3152": "Ġthem",
  "3153": "sĠf",
  "3154": "ĠforĠtheĠpurpos",
  "3155": ",ĠforĠcl",
  "3156": "Ġ\n(w.e.f.Ġ1-11-1956",
  "3157": ").ĠĠ\n3",
  "3158": "personĠwho",
  "3159": "ĠwasĠ",
  "3160": "leas",
  "3161": ",Ġafter",
  "3162": ".Ġ\n2[",
  "3163": "ĠinĠaccordanceĠwith",
  "3164": "affair",
  "3165": "soĠfar",
  "3166": "moreĠ",
  "3167": "expirationĠofĠtheĠ",
  "3168": "specifi",
  "3169": "ĠmayĠbeĠ",
  "3170": "",
  "3171": "ingĠandĠ",
  "3172": "ally",
  "3173": "landĠ",
  "3174": "expressionĠ“",
  "3175": "Amendment)ĠAct,Ġ196",
  "3176": "ĠorĠanyĠofĠtheĠ",
  "3177": "shallĠbeĠtheĠduty",
  "3178": "Pondicher",
  "3179": "ĠofĠ200",
  "3180": ".Ġ\nĠ(",
  "3181": "hisĠs",
  "3182": "agre",
  "3183": "belong",
  "3184": "ceas",
  "3185": "paidĠ",
  "3186": "Fifty-",
  "3187": "draw",
  "3188": "*ĠĠĠĠĠĠĠĠĠĠĠĠĠĠĠĠĠĠĠĠĠĠĠ",
  "3189": "rovidedĠthatĠ",
  "3190": "tribal",
  "3191": "ima",
  "3192": "North-EasternĠAreasĠ(Reorganisation)ĠAct,Ġ1971Ġ(81",
  "3193": "ĠCommitte",
  "3194": "SixthĠ",
  "3195": "ĠorĠaĠ",
  "3196": "rovisions)Ġ",
  "3197": "sectionĠ(Ġ1)",
  "3198": ".9",
  "3199": "sub-paragraphĠ(",
  "3200": "urve",
  "3201": "BiharĠActĠ",
  "3202": "TenancyĠ",
  "3203": "CE",
  "3204": "corpor",
  "3205": "mission",
  "3206": "consist",
  "3207": "rights",
  "3208": "educationalĠinstitution",
  "3209": "minister",
  "3210": "egu",
  "3211": "ument",
  "3212": "secur",
  "3213": "ual",
  "3214": "PresidentĠ\n",
  "3215": "formation",
  "3216": "mun",
  "3217": "duction",
  "3218": "lea",
  "3219": "ferĠofĠ",
  "3220": "sĠtoĠbeĠ",
  "3221": "ardsĠ",
  "3222": "ScheduledĠAreas",
  "3223": "LegislatureĠor",
  "3224": "servicesĠ",
  "3225": "ĠinĠtheĠ\n",
  "3226": "52",
  "3227": "Ġagreement",
  "3228": "prev",
  "3229": "Ġ\noffic",
  "3230": "NoĠperson",
  "3231": "VISIONS",
  "3232": "Punjab",
  "3233": "StateĠofĠMizoram",
  "3234": "—Ġ",
  "3235": ",ĠthatĠis",
  "3236": "AnyĠ",
  "3237": "ĠofĠanyĠlaw",
  "3238": "ĠclauseĠ(1)ĠofĠarticleĠ",
  "3239": ".ĠAddedĠbyĠtheĠ",
  "3240": "gether",
  "3241": "forĠ\"",
  "3242": "relat",
  "3243": "atĠtheĠ",
  "3244": "exclud",
  "3245": "saidĠperiod",
  "3246": "JudgeĠofĠtheĠ",
  "3247": "edĠbyĠorĠunder",
  "3248": "rightĠto",
  "3249": "Ġ(w.e.f.Ġ3-1-1977",
  "3250": "Ġassent",
  "3251": "Ġunder",
  "3252": "ĠforĠtheĠtimeĠbeingĠin",
  "3253": "ĠorĠs",
  "3254": "becomeĠ",
  "3255": "6[",
  "3256": "Min",
  "3257": "shall,Ġin",
  "3258": "Ġa)",
  "3259": "asĠtheĠ",
  "3260": ",Ġs",
  "3261": ";Ġ\n(e)Ġ",
  "3262": ",Ġth",
  "3263": "one-",
  "3264": "relev",
  "3265": "c)ĠtheĠ",
  "3266": "\"Ġ\n(w.e.f.Ġ",
  "3267": "fiveĠyears",
  "3268": "ĠofĠaĠ\n",
  "3269": "final",
  "3270": "caseĠ",
  "3271": "ĠsuchĠre",
  "3272": "appointedĠbyĠtheĠ",
  "3273": "ĠofĠparagraph",
  "3274": "irtyĠ",
  "3275": "DamanĠandĠ",
  "3276": "DamanĠandĠDiu",
  "3277": "Ġdiss",
  "3278": "ĠatĠanyĠtimeĠ",
  "3279": "ĠandĠ(",
  "3280": "ifĠany",
  "3281": "ĠoutĠofĠtheĠ",
  "3282": "sĠ“",
  "3283": "laidĠbeforeĠtheĠ",
  "3284": ").ĠTHEĠCONSTITUTIONĠOFĠĠINDIAĠ\n(PartĠVI.—TheĠStates)Ġ",
  "3285": "byĠpublicĠnotification",
  "3286": "ĠofĠ1986",
  "3287": "Hima",
  "3288": ".]Ġ\n1[",
  "3289": "Territories",
  "3290": "ĠareasĠ",
  "3291": "non-",
  "3292": "FirstĠAmendment)ĠAct,Ġ2016",
  "3293": "Wes",
  "3294": "XXI.Ġ—",
  "3295": "XXI.Ġ—Tempor",
  "3296": "XXI.Ġ—Temporary,Ġ",
  "3297": "XXI.Ġ—Temporary,ĠTrans",
  "3298": "XXI.Ġ—Temporary,ĠTransition",
  "3299": "XXI.Ġ—Temporary,ĠTransitionalĠandĠ",
  "3300": "XXI.Ġ—Temporary,ĠTransitionalĠandĠSpecialĠP",
  "3301": "XXI.Ġ—Temporary,ĠTransitionalĠandĠSpecialĠProvisions)Ġ",
  "3302": "AppendixĠI",
  "3303": "griculturalĠLand",
  "3304": "TamilĠNaduĠLandĠReformsĠ(FixationĠofĠ",
  "3305": "TamilĠNaduĠLandĠReformsĠ(FixationĠofĠCeilingĠonĠLand",
  "3306": "hitĠ",
  "3307": "anj",
  "3308": "PE",
  "3309": "ence",
  "3310": "upplement",
  "3311": "Ġpersons",
  "3312": "efinition",
  "3313": "Ġpla",
  "3314": "Ġoff",
  "3315": "pertyĠ",
  "3316": "TIVE",
  "3317": "anceĠin",
  "3318": "work",
  "3319": "dustr",
  "3320": "vir",
  "3321": "Ġ\nTheĠ",
  "3322": "ĠofĠtheĠPresident",
  "3323": "vacancyĠ",
  "3324": "ĠofĠtheĠCouncil",
  "3325": "Ġdischarg",
  "3326": "grantĠ",
  "3327": "HousesĠofĠParliament",
  "3328": "resignation",
  "3329": "alĠfrom",
  "3330": "ĠactĠ",
  "3331": "nualĠ",
  "3332": "ĠOFĠTHE",
  "3333": "romul",
  "3334": "Ġacting",
  "3335": "Advoc",
  "3336": "sĠtoĠ",
  "3337": "twoĠorĠmoreĠ",
  "3338": "ticlesĠ",
  "3339": "responsibil",
  "3340": "Committe",
  "3341": "bear",
  "3342": "general",
  "3343": "goodsĠandĠ",
  "3344": "byĠParliamentĠ",
  "3345": "ĠrelatingĠto",
  "3346": "Ġappropri",
  "3347": "Tax",
  "3348": "Ġmoney",
  "3349": "extendĠ",
  "3350": "basis",
  "3351": "Hin",
  "3352": "Hindi",
  "3353": "StateĠofĠSikkim",
  "3354": "FirstĠSchedule",
  "3355": ").ĠĠĠ",
  "3356": "intro",
  "3357": "ĠforĠtheĠpurposes",
  "3358": ".ĠTheĠwordsĠandĠ",
  "3359": "defin",
  "3360": "ĠbeforeĠtheĠ",
  "3361": "deemedĠtoĠ",
  "3362": "immediatelyĠbeforeĠtheĠ\ncommencementĠofĠthisĠConstitution",
  "3363": "ĠpreventĠtheĠ",
  "3364": "omen",
  "3365": "(1)Ġ\n",
  "3366": "Ġfa",
  "3367": "Sev",
  "3368": "Ġconnection",
  "3369": "holds",
  "3370": "NothingĠin",
  "3371": "ĠinĠrelationĠto",
  "3372": "e,Ġ\n",
  "3373": "ourteen",
  "3374": "sixthĠAmendment)ĠAct,Ġ",
  "3375": "otherĠthan",
  "3376": "ĠanyĠperson",
  "3377": "deemedĠto",
  "3378": "construedĠasĠ",
  "3379": "ĠofĠsuchĠ",
  "3380": "AlterationĠofĠName",
  "3381": "1972",
  "3382": "11-",
  "3383": "att",
  "3384": ";Ġ\n(f",
  "3385": "1992",
  "3386": ").ĠTHEĠCONSTITUTIONĠOFĠĠINDIAĠ\n(PartĠV.—TheĠUnion)Ġ",
  "3387": ".—(1)ĠTheĠ",
  "3388": "soĠ",
  "3389": "ĠasĠareĠ",
  "3390": "third",
  "3391": "poss",
  "3392": "ableĠto",
  "3393": "till",
  "3394": "Gaz",
  "3395": ",Ġto",
  "3396": "erat",
  "3397": "territorialĠc",
  "3398": "ĠasĠmayĠbeĠ\n",
  "3399": "tisfied",
  "3400": "29ĠandĠSch.",
  "3401": "itĠshallĠbeĠ",
  "3402": "Ġregulation",
  "3403": "Ġ\nrespec",
  "3404": "uponĠtheĠ",
  "3405": "lo",
  "3406": "cern",
  "3407": "PresidentĠmayĠbyĠorder",
  "3408": "ĠsuchĠexcep",
  "3409": "WestĠ\n",
  "3410": "2018",
  "3411": "ansk",
  "3412": "thĠSchedule)Ġ",
  "3413": "0.ĠTheĠ",
  "3414": "KeralaĠActĠ",
  "3415": "aĠLandĠReformsĠ(",
  "3416": "boundaryĠ",
  "3417": "ĠDinhataĠ",
  "3418": "DinhataĠB",
  "3419": "DinhataĠBhurungamari",
  "3420": "ĠofĠtheĠConstitution",
  "3421": "................................",
  "3422": "ĠĠĠĠĠĠĠĠĠĠ",
  "3423": "RI",
  "3424": "existing",
  "3425": "ament",
  "3426": "portun",
  "3427": ".Ġ\n18",
  "3428": ".ĠProtection",
  "3429": "ild",
  "3430": "truction",
  "3431": "rightsĠconferredĠ",
  "3432": ".ĠPowerĠofĠParliamentĠto",
  "3433": "mar",
  "3434": "giveĠ",
  "3435": "TE",
  "3436": "welfar",
  "3437": "Ġaid",
  "3438": "cases",
  "3439": "car",
  "3440": "improv",
  "3441": "saf",
  "3442": "Ġ\nĠ\nĠ\nĠ\n",
  "3443": "Man",
  "3444": "ĠTheĠ",
  "3445": "Ġperform",
  "3446": "Ġ\n10",
  "3447": "ĠbeforeĠ",
  "3448": "estim",
  "3449": "romulg",
  "3450": "HAPTERĠI",
  "3451": "tice",
  "3452": "record",
  "3453": "ComptrollerĠandĠAuditor-General",
  "3454": "sĠinĠ",
  "3455": "ĠotherĠ\n",
  "3456": "sĠor",
  "3457": "lan",
  "3458": "est",
  "3459": "isĠinĠoperation",
  "3460": "rovisionsĠ",
  "3461": "revenu",
  "3462": "arr",
  "3463": ".ĠĠ\n3",
  "3464": "serv",
  "3465": "ĠofficeĠof",
  "3466": "toĠmakeĠ",
  "3467": "inĠtheĠ\n",
  "3468": ".]Ġ\n3",
  "3469": "Aruna",
  "3470": "asĠmayĠbeĠ",
  "3471": ".ĠTheĠwordsĠandĠletter",
  "3472": "specifiedĠinĠPartĠA",
  "3473": "reced",
  "3474": "itizenĠofĠIndia",
  "3475": "\nProvidedĠthat",
  "3476": "Ġb)",
  "3477": "presen",
  "3478": "”Ġinclud",
  "3479": "State,",
  "3480": "1-200",
  "3481": "ForĠtheĠpurposes",
  "3482": "ĠthatĠState",
  "3483": "Ġword",
  "3484": "inĠaccordanceĠwith",
  "3485": "being",
  "3486": ";Ġ\n______________________________________________Ġ\n1",
  "3487": "ation,Ġ",
  "3488": "ĠaĠperiod",
  "3489": "ĠperiodĠ",
  "3490": "iii)Ġ",
  "3491": "ĠthisĠbehalf",
  "3492": "ĠasĠis",
  "3493": "ĠtheĠprovisionsĠofĠ",
  "3494": "forĠaĠ",
  "3495": "ead",
  "3496": ").ĠĠ\n4",
  "3497": "compet",
  "3498": ").Ġ\n2.ĠSubs.ĠbyĠtheĠConstitutionĠ(",
  "3499": "differentĠ",
  "3500": "reat",
  "3501": "exerciseĠ",
  "3502": "figuresĠ",
  "3503": "Vice-PresidentĠ",
  "3504": ".Ġ\n______________________________________________Ġ\n1.ĠSubs.ĠbyĠtheĠConstitutionĠ(",
  "3505": ".Ġ\n(4)ĠTheĠ",
  "3506": ",ĠthatĠisĠtoĠs",
  "3507": "eĠoffic",
  "3508": "56",
  "3509": "inĠrespect",
  "3510": "qualifiedĠfor",
  "3511": "Ġtaken",
  "3512": "known",
  "3513": "Ġ\n6",
  "3514": "ĠaĠBill",
  "3515": "ĠofĠaĠHouseĠ",
  "3516": "sĠso",
  "3517": "ĠanyĠsuchĠ",
  "3518": "underĠthisĠarticleĠ",
  "3519": "itĠ\n",
  "3520": "ĠasĠheĠmayĠ",
  "3521": "financialĠyear",
  "3522": "ĠofĠthoseĠ",
  "3523": "Ġ\nand",
  "3524": "ĠwereĠ",
  "3525": "ĠOrdin",
  "3526": "appointment",
  "3527": "cementĠ",
  "3528": "hisĠdis",
  "3529": "GovernorĠma",
  "3530": "GovernorĠmayĠ",
  "3531": "]]",
  "3532": "ĠofĠ1960",
  "3533": "Mys",
  "3534": "7.ĠTheĠ",
  "3535": "provideĠfor",
  "3536": "hadĠ",
  "3537": "emor",
  "3538": "OneĠHundredĠandĠFirstĠAmendment)ĠAct,Ġ2016",
  "3539": "Contrac",
  "3540": "toc",
  "3541": "Tu",
  "3542": "ReorganisationĠĠ",
  "3543": "ArticleĠ",
  "3544": "edĠinĠitsĠapplication",
  "3545": "thĠSch.",
  "3546": "Ġ(1)ĠofĠparagraph",
  "3547": "Holdings",
  "3548": "ĠofĠ1974).Ġ\n",
  "3549": "BoundaryĠPillarĠNo.Ġ",
  "3550": "0.",
  "3551": "ew",
  "3552": ",Ġp",
  "3553": "2A",
  "3554": "Ġalter",
  "3555": "equenti",
  "3556": ".ĠDefinition",
  "3557": "hibition",
  "3558": "pe",
  "3559": "ĠinĠcertain",
  "3560": "ĠagainstĠ",
  "3561": "rais",
  "3562": "eguard",
  "3563": "import",
  "3564": ".ĠDis",
  "3565": "Ġ\n7",
  "3566": "Ġcensus",
  "3567": "ĠofĠtheĠoffic",
  "3568": "nualĠfinanci",
  "3569": "Ġinquir",
  "3570": "Ġcourt",
  "3571": "SupremeĠCourtĠin",
  "3572": "ableĠbyĠtheĠ",
  "3573": "GEN",
  "3574": "ĠofĠtheĠLegislativeĠAssembly",
  "3575": "grants",
  "3576": "plic",
  "3577": "ĠdistrictĠ",
  "3578": "ruit",
  "3579": "ĠforĠ\n",
  "3580": "electoralĠ",
  "3581": "246",
  "3582": "ProclamationĠofĠEmergencyĠ",
  "3583": "Ġrecommend",
  "3584": "RA",
  "3585": "Ġduties",
  "3586": "proceed",
  "3587": "Good",
  "3588": "ustod",
  "3589": "Ġoblig",
  "3590": "moval",
  "3591": "Ġofficers",
  "3592": "Ġelection",
  "3593": "o-Indian",
  "3594": "representation",
  "3595": "backwardĠclasses",
  "3596": "educationallyĠ",
  "3597": "onĠre",
  "3598": "ĠandĠa",
  "3599": "ana",
  "3600": "Karnat",
  "3601": "Karnatak",
  "3602": "laws",
  "3603": "ĠCourt",
  "3604": "ĠsubjectĠto",
  "3605": "Ġarticle,Ġ",
  "3606": ".—Ġ(1)Ġ",
  "3607": "Ġforce",
  "3608": "repeal",
  "3609": "III.—",
  "3610": "fromĠmaking",
  "3611": "Seventy-",
  "3612": "seven",
  "3613": "without",
  "3614": "leĠ",
  "3615": "ĠofĠ\nanyĠ",
  "3616": "ityĠofĠIndia",
  "3617": ".Ġ\n(5)Ġ",
  "3618": "appoint",
  "3619": "notified",
  "3620": "ĠChair",
  "3621": "construed",
  "3622": "ĠshallĠ\n",
  "3623": "held",
  "3624": "sĠandĠother",
  "3625": "MadrasĠ",
  "3626": ",ĠforĠ\n\"",
  "3627": "natur",
  "3628": "OmittedĠbyĠtheĠConstitutionĠ(",
  "3629": "mainten",
  "3630": ";Ġ\n(b)",
  "3631": "sĠandĠmodification",
  "3632": "notĠ\n",
  "3633": "\"Ġ(w.e.f.Ġ1-11-1956",
  "3634": "Act,Ġ1976",
  "3635": "apit",
  "3636": "votes",
  "3637": "eachĠStateĠ",
  "3638": "5).Ġ\n",
  "3639": "44ĠofĠ200",
  "3640": "relevantĠ",
  "3641": "holdĠofficeĠ",
  "3642": "entersĠ",
  "3643": "entersĠuponĠ",
  "3644": "underĠhis",
  "3645": "underĠhisĠh",
  "3646": "underĠhisĠhand",
  "3647": "uments",
  "3648": "Jus",
  "3649": "IĠwill",
  "3650": "ĠorĠanyĠother",
  "3651": "jointĠ",
  "3652": "\nof",
  "3653": "has",
  "3654": "notwithstandingĠany",
  "3655": "Ġwhether",
  "3656": "ĠsuchĠmanner",
  "3657": "Gazett",
  "3658": "administrationĠofĠtheĠ",
  "3659": "territorialĠconstituencies",
  "3660": "ĠthereĠshallĠbeĠ",
  "3661": "Goa,Ġ",
  "3662": "session",
  "3663": "Ġpend",
  "3664": "Ġregulating",
  "3665": "subsequ",
  "3666": "was",
  "3667": "Ġsa",
  "3668": "giving",
  "3669": "rupees",
  "3670": "onĠtheĠ\n",
  "3671": "laidĠbeforeĠ",
  "3672": "3),Ġ",
  "3673": "Ġ\nA",
  "3674": "vari",
  "3675": "Court",
  "3676": "WhereĠ",
  "3677": "SeventhĠAmendment)ĠAct,Ġ1956",
  "3678": "cretion",
  "3679": "rulesĠ",
  "3680": "eĠthat",
  "3681": "Ġ\nPradesh",
  "3682": "Bengal",
  "3683": "ĠofĠsectionĠ3",
  "3684": "HimachalĠPradesh",
  "3685": "North-EasternĠAreasĠ(Reorganisation)ĠAct,Ġ1971Ġ(81ĠofĠ1971),Ġs.Ġ",
  "3686": "20-2-",
  "3687": "20-2-1987",
  "3688": "enum",
  "3689": "enumerat",
  "3690": "referencesĠtoĠtheĠ",
  "3691": "specify",
  "3692": "II.Ġ—",
  "3693": "II.Ġ—Fin",
  "3694": "II.Ġ—Finance,Ġ",
  "3695": "II.Ġ—Finance,ĠPro",
  "3696": "II.Ġ—Finance,ĠProperty",
  "3697": "II.Ġ—Finance,ĠProperty,Ġ",
  "3698": "II.Ġ—Finance,ĠProperty,ĠContrac",
  "3699": "II.Ġ—Finance,ĠProperty,ĠContractsĠandĠ",
  "3700": "II.Ġ—Finance,ĠProperty,ĠContractsĠandĠS",
  "3701": "II.Ġ—Finance,ĠProperty,ĠContractsĠandĠSuits",
  "3702": "II.Ġ—Finance,ĠProperty,ĠContractsĠandĠSuits)Ġ\n",
  "3703": "*]",
  "3704": "chang",
  "3705": "Bod",
  "3706": "ĠrenumberedĠasĠentriesĠ",
  "3707": "Ġsub-paragraphĠ(1)",
  "3708": "ĠĠ................................Ġ................................Ġ",
  "3709": "71(",
  "3710": "sĠAct,Ġ",
  "3711": "AgriculturalĠLand",
  "3712": "MaharashtraĠActĠ",
  "3713": "Ġ(CentralĠ",
  "3714": "THEĠCONSTITUTIONĠOFĠĠINDIAĠ\n(AppendixĠI",
  "3715": "THEĠCONSTITUTIONĠOFĠĠINDIAĠ\n(AppendixĠI)ĠĠ\nĠ3",
  "3716": "ald",
  "3717": "Naz",
  "3718": "Nazir",
  "3719": "Nazirganj",
  "3720": "NazirganjaĠ",
  "3721": ".ĠBansk",
  "3722": ".ĠBanskataĠ",
  "3723": "ĠPatgramĠMathab",
  "3724": "ĠPatgramĠMathabangaĠ",
  "3725": "text",
  "3726": "stituted",
  "3727": "4.Ġ",
  "3728": "sid",
  "3729": ".Ġ\n10",
  "3730": "ĠE",
  "3731": "ceĠof",
  "3732": "romotion",
  "3733": "32",
  "3734": ",ĠofĠ",
  "3735": "Pri",
  "3736": "mess",
  "3737": ".ĠProvisions",
  "3738": "inĠrespectĠofĠ",
  "3739": "Ġduring",
  "3740": "Fed",
  "3741": "Federal",
  "3742": "ĠCourtĠ",
  "3743": "decre",
  "3744": "Ġauthorities",
  "3745": "AL",
  "3746": ".Ġ\n17",
  "3747": "Ġpowers",
  "3748": "provisionsĠofĠthis",
  "3749": "Ġadministr",
  "3750": "ĠtoĠre",
  "3751": "ferenceĠ",
  "3752": "servicesĠtax",
  "3753": "57",
  "3754": "esĠofĠtheĠUnion",
  "3755": "63",
  "3756": "Reven",
  "3757": "ĠbetweenĠtheĠ",
  "3758": "ĠbutĠ",
  "3759": "GoodsĠandĠ",
  "3760": "def",
  "3761": "property",
  "3762": "Ġobligation",
  "3763": "ank",
  "3764": "ĠPROVISIONS",
  "3765": "allyĠandĠ",
  "3766": "ency",
  "3767": "gres",
  "3768": "ogn",
  "3769": "lawsĠwithĠrespectĠto",
  "3770": "ingĠinĠtheĠ",
  "3771": "THĠSCHEDULE",
  "3772": ")ĠOrder,Ġ",
  "3773": "Ġ\n(3)Ġ",
  "3774": "introduc",
  "3775": "ĠthatĠStateĠ",
  "3776": "Ġspecifi",
  "3777": "Ġclauses",
  "3778": "ĠorĠarticleĠ",
  "3779": "\"ĠomittedĠbyĠtheĠ",
  "3780": "1966",
  "3781": "suchĠperson",
  "3782": "8,Ġ",
  "3783": "byĠhim",
  "3784": "DominionĠofĠIndia",
  "3785": "foregoingĠprovisions",
  "3786": "”Ġincludes",
  "3787": "extent",
  "3788": "hav",
  "3789": "NothingĠinĠthisĠarticleĠ",
  "3790": "mentionedĠin",
  "3791": "ThirdĠ",
  "3792": "opinion",
  "3793": "provides",
  "3794": "ĠorĠd",
  "3795": "tsĠofĠtheĠ",
  "3796": "compl",
  "3797": "edĠforĠtheĠ",
  "3798": "ĠasĠmayĠbe",
  "3799": "cho",
  "3800": "consisting",
  "3801": "purposes",
  "3802": "gu",
  "3803": "s,Ġ\n",
  "3804": "thingĠcontainedĠin",
  "3805": "53",
  "3806": "judgment,Ġ",
  "3807": ").Ġ\n6",
  "3808": "ĠallĠorĠanyĠofĠtheĠ",
  "3809": "edĠ\nbyĠtheĠ",
  "3810": ".]Ġ\n______________________________________________Ġ\n1",
  "3811": ",ĠforĠar",
  "3812": "Ġ\nto",
  "3813": "but",
  "3814": "Ġamong",
  "3815": "ĠanĠ\n",
  "3816": "ption",
  "3817": "ItĠshallĠbeĠtheĠduty",
  "3818": "Ġfunction",
  "3819": "allot",
  "3820": "usĠ",
  "3821": "hisĠseat",
  "3822": "ĠasĠmayĠbeĠdetermin",
  "3823": "shallĠ\nbeĠ",
  "3824": "isĠso",
  "3825": "commen",
  "3826": "read",
  "3827": "i)ĠtheĠ",
  "3828": "ThisĠamendmentĠ",
  "3829": "her",
  "3830": "mittedĠ",
  "3831": ",ĠorĠtheĠ",
  "3832": "ĠtoĠbeĠmadeĠ",
  "3833": "\n1",
  "3834": "Appointment",
  "3835": "s.Ġ2",
  "3836": "Rec",
  "3837": "co",
  "3838": "continu",
  "3839": "umĠ",
  "3840": "LegislatureĠ\nof",
  "3841": "1986Ġ(",
  "3842": ",ĠtheĠword",
  "3843": "21-1-1972",
  "3844": "eafter",
  "3845": "arĠH",
  "3846": "LegislatureĠofĠaĠStateĠmay,ĠbyĠlaw,Ġ",
  "3847": "etyĠ",
  "3848": "Ġ\nĠ(",
  "3849": "rail",
  "3850": "1988",
  "3851": "1990",
  "3852": "politicalĠpar",
  "3853": "NagalandĠ",
  "3854": "territoriesĠspecifiedĠinĠsection",
  "3855": "ReorganisationĠĠAct,Ġ",
  "3856": ".”",
  "3857": "edĠinĠitsĠapplicationĠtoĠtheĠ",
  "3858": "1.ĠTheĠ",
  "3859": "urvey",
  "3860": "NinthĠSchedule)Ġ",
  "3861": "BengalĠActĠ",
  "3862": ".ĠChhitĠ",
  "3863": ".0",
  "3864": "hangaĠ",
  "3865": "ĠINDIA",
  "3866": "thĠĠ",
  "3867": "elhi",
  "3868": "ĠF",
  "3869": "alĠRigh",
  "3870": "alĠRights",
  "3871": "enforcement",
  "3872": "ĠSTA",
  "3873": "rincipl",
  "3874": "leg",
  "3875": "ĠandĠto",
  "3876": ".ĠProvision",
  "3877": "ditionsĠofĠ",
  "3878": "Fundament",
  "3879": "functionsĠ",
  "3880": ".Ġ\n7",
  "3881": "uspend",
  "3882": "ĠofĠMinister",
  "3883": "At",
  "3884": "MENT",
  "3885": "ĠofĠtheĠCouncilĠofĠStates",
  "3886": "Ġ\n8",
  "3887": "iii)",
  "3888": "eĠtoĠbeĠ",
  "3889": "Ġ\nc",
  "3890": ".ĠInter",
  "3891": "Form",
  "3892": "ĠandĠofĠtheĠ",
  "3893": "ĠofĠtheĠGovernor",
  "3894": "ĠofĠtheĠGovernment",
  "3895": ".]Ġ\n2",
  "3896": "persons",
  "3897": "Ġover",
  "3898": "243Z",
  "3899": "etro",
  "3900": "lanning",
  "3901": "lawsĠmadeĠ",
  "3902": "saveĠ",
  "3903": "66",
  "3904": "edĠbyĠtheĠ\n",
  "3905": "UnionĠandĠ",
  "3906": "edĠtoĠtheĠ\n",
  "3907": "ServicesĠTax",
  "3908": ".Ġ\n28",
  "3909": "cession",
  "3910": "resour",
  "3911": "exclus",
  "3912": "Angl",
  "3913": "lasses",
  "3914": "StatesĠofĠ",
  "3915": "ivers",
  "3916": "ArunachalĠPradesh",
  "3917": "Ġadaptation",
  "3918": "LegislativeĠ\nAssembly",
  "3919": "Mar",
  "3920": "integ",
  "3921": "integr",
  "3922": "twenty-",
  "3923": "e)",
  "3924": ".ĠĠSub",
  "3925": "2***",
  "3926": "Ġthereon",
  "3927": "inĠtheĠterritoryĠofĠIndia",
  "3928": "preced",
  "3929": "Ġ\nshallĠbeĠ",
  "3930": ".—\n",
  "3931": "authority",
  "3932": "afterĠtheĠ",
  "3933": "Part,Ġ",
  "3934": "notĠbeĠ",
  "3935": "ĠasĠsuch",
  "3936": "5)",
  "3937": "reservation",
  "3938": "ĠtoĠtheĠ\n",
  "3939": ").Ġ\n2.ĠIns.ĠbyĠtheĠConstitutionĠ(",
  "3940": ",ĠforĠcertain",
  "3941": "operation",
  "3942": "Ġbelong",
  "3943": "withĠre",
  "3944": "5-10-",
  "3945": "icalĠ",
  "3946": "tĠ\nto",
  "3947": "near",
  "3948": "thingĠinĠthisĠclauseĠ",
  "3949": "ĠConstitutionĠ(",
  "3950": "Ġsec",
  "3951": "Ġestablish",
  "3952": "hisĠ",
  "3953": "ĠofĠanĠ",
  "3954": "ĠorĠmodification",
  "3955": "ĠtheĠconsider",
  "3956": "ĠtheĠlaw",
  "3957": "etĠ",
  "3958": "hol",
  "3959": ",Ġs.Ġ3Ġ(w.e.f.Ġ",
  "3960": "Ġ17",
  "3961": "StateĠofĠ\n",
  "3962": ",ĠA",
  "3963": "2-1977",
  "3964": "inĠforceĠ",
  "3965": "nationalĠ",
  "3966": "itableĠ",
  "3967": "development",
  "3968": "sp",
  "3969": "Forty-secondĠAmendment",
  "3970": "byĠw",
  "3971": "underĠtheĠGovernmentĠofĠIndia",
  "3972": "ĠinĠthatĠbehalf",
  "3973": "eĠis",
  "3974": "ĠaĠresolution",
  "3975": "THEĠCONSTITUTIONĠOFĠĠINDIAĠ\n(PartĠV.—TheĠUnion)Ġ",
  "3976": "omeĠ",
  "3977": ".ĠTheĠwordsĠ\"orĠRajpramukh\"ĠomittedĠbyĠtheĠConstitutionĠ(Seven",
  "3978": "ĠanyĠcourt",
  "3979": "matters",
  "3980": ".ĠCl",
  "3981": "Forty-fourthĠAmendment",
  "3982": "Goa,ĠDamanĠandĠDiu",
  "3983": "ĠoperateĠ",
  "3984": "ent,Ġ",
  "3985": "ĠorĠon",
  "3986": "ĠanyĠotherĠmatter",
  "3987": "1985",
  "3988": "ĠtheĠBill",
  "3989": "underĠthisĠclauseĠ",
  "3990": "amount",
  "3991": "accoun",
  "3992": "ĠitĠis",
  "3993": "undĠ",
  "3994": "effectĠin",
  "3995": "ActĠofĠ",
  "3996": "eighthĠAmendment)ĠAct,Ġ",
  "3997": "datedĠ",
  "3998": "expedi",
  "3999": "makeĠprovision",
  "4000": "—Ġ\n“",
  "4001": "MysoreĠ",
  "4002": "*ĠĠ",
  "4003": "LegislativeĠAssemblyĠofĠtheĠ",
  "4004": "emorand",
  "4005": "Municipality",
  "4006": "train",
  "4007": "includingĠ",
  "4008": "Tuens",
  "4009": "Tuensang",
  "4010": "Ġ8",
  "4011": "onĠsuch",
  "4012": "TransferĠofĠ",
  "4013": "AssamĠ",
  "4014": "ĠhasĠbeenĠamend",
  "4015": "ĠofĠListĠI",
  "4016": ";ĠĠ(",
  "4017": "*ĠĠĠĠĠĠĠĠĠĠĠĠĠĠĠĠĠĠ*ĠĠĠĠĠĠĠĠĠĠĠĠĠĠĠĠĠĠ",
  "4018": "uri",
  "4019": "WestĠ\nBengalĠActĠ",
  "4020": "ĠMathab",
  "4021": "iganj",
  "4022": "asald",
  "4023": "Fragment)Ġ",
  "4024": "providedĠin",
  "4025": "370",
  "4026": "ret",
  "4027": ".Ġ\nC",
  "4028": "ĠĠĠĠĠĠĠĠĠĠĠĠ",
  "4029": "Ġ\nTHE",
  "4030": "ĠUNI",
  "4031": "ĠUNION",
  "4032": "Omitted.]Ġ\n",
  "4033": "consequenti",
  "4034": "ĠofĠcertain",
  "4035": "ĠhaveĠ",
  "4036": "notĠto",
  "4037": ".ĠContentsĠ\nĠ\nĠĠĠARTICLESĠ(",
  "4038": "crimin",
  "4039": "religion",
  "4040": "fe",
  "4041": "ĠPARTĠ",
  "4042": "PresidentĠandĠ",
  "4043": "termĠofĠoffic",
  "4044": "ualĠ",
  "4045": "iseĠ",
  "4046": "GeneralĠ",
  "4047": "ĠasĠrespects",
  "4048": "nish",
  "4049": "ĠofĠParliament",
  "4050": ".ĠPowerĠofĠtheĠ",
  "4051": "dutiesĠofĠtheĠoffic",
  "4052": "isĠunderĠconsideration",
  "4053": "SpeakerĠandĠ",
  "4054": "ĠoathĠorĠaffirmation",
  "4055": "tatement",
  "4056": "Ġbusiness",
  "4057": "Ġdisc",
  "4058": "IS",
  "4059": "ĠChief",
  "4060": "udi",
  "4061": "ChiefĠMinister",
  "4062": "OUR",
  "4063": "HighĠCourts",
  "4064": "districtĠjudg",
  "4065": "ordinateĠ",
  "4066": "taxes",
  "4067": ".ĠBar",
  "4068": "itan",
  "4069": "uspension",
  "4070": "54",
  "4071": "Ġconfer",
  "4072": "ĠrelatingĠtoĠ",
  "4073": "GoodsĠandĠServicesĠTax",
  "4074": "pens",
  "4075": "commerceĠ",
  "4076": "restric",
  "4077": "Ġservices",
  "4078": "ublicĠServic",
  "4079": "ĠtoĠmakeĠ",
  "4080": "taff",
  "4081": "onĠtheĠbasis",
  "4082": "Anglo-Indian",
  "4083": "enact",
  "4084": "Ġpor",
  "4085": "2[(",
  "4086": "inksĠf",
  "4087": ".Ġ\n3[",
  "4088": "].—",
  "4089": "whereĠtheĠ",
  "4090": "ĠtheĠproviso",
  "4091": "UnionĠterritoryĠ",
  "4092": "thĠScheduleĠ",
  "4093": "ĠsuchĠs",
  "4094": "tedĠbyĠ",
  "4095": "ĠsuchĠlaw",
  "4096": "edĠinĠthatĠbehalf",
  "4097": "ĠatĠleas",
  "4098": "PartĠII",
  "4099": "ĠtheĠcontrol",
  "4100": "2)ĠofĠarticleĠ",
  "4101": "6)Ġ",
  "4102": ").Ġ\n3.ĠIns.ĠbyĠtheĠConstitutionĠ(",
  "4103": "ForĠtheĠpurposesĠofĠthis",
  "4104": "enceĠor",
  "4105": "ated",
  "4106": "ĠinĠanyĠ",
  "4107": "ĠinĠwhich",
  "4108": "seventhĠAmendment)ĠAct,Ġ",
  "4109": "2001",
  "4110": "ĠwhichĠ\n",
  "4111": "thereof",
  "4112": "cept",
  "4113": "emol",
  "4114": "Ġ1[",
  "4115": "unish",
  "4116": "oryĠ",
  "4117": "Ġst",
  "4118": "Ġconsist",
  "4119": "—Ġ\n(i)Ġ",
  "4120": "ĠorderĠmadeĠ",
  "4121": "earli",
  "4122": "d)Ġ",
  "4123": ",ĠĠibid",
  "4124": "ĠwhereĠ",
  "4125": ",ĠhaveĠ",
  "4126": "privileges",
  "4127": "Ġ(w.e.f",
  "4128": "UnionĠofĠIndia",
  "4129": "IRĠ",
  "4130": "av",
  "4131": "ati",
  "4132": "1973",
  "4133": "otherwis",
  "4134": "ĠanyĠofĠtheĠmattersĠ",
  "4135": "Ġ\nany",
  "4136": "Ġarticle,ĠtheĠ",
  "4137": "(2)Ġ",
  "4138": "umption",
  "4139": "ob",
  "4140": "ĠtheĠs",
  "4141": "regul",
  "4142": "AlterationĠofĠName)ĠAct,Ġ",
  "4143": "entersĠuponĠhis",
  "4144": "Ġaddress",
  "4145": "proviso",
  "4146": "SecondĠSchedule",
  "4147": "cribeĠ",
  "4148": "Ġgiven",
  "4149": "perform",
  "4150": "untilĠtheĠ",
  "4151": "powersĠandĠ",
  "4152": "ĠbyĠhim",
  "4153": "ĠanyĠlawĠmadeĠbyĠParliament",
  "4154": "advic",
  "4155": "Ġ\nConstitution",
  "4156": "edg",
  "4157": "-5-",
  "4158": "2-6-",
  "4159": "Ġdissolv",
  "4160": "joint",
  "4161": "vacant",
  "4162": "made",
  "4163": "Ġ\n9",
  "4164": "Ġsatisfied",
  "4165": "Ġarises",
  "4166": "ĠpassedĠbyĠ",
  "4167": "ĠpartĠofĠtheĠ",
  "4168": "mayĠmakeĠ",
  "4169": "Engl",
  "4170": "English",
  "4171": "effectĠasĠ",
  "4172": "ordĠ",
  "4173": "ereĠ\n",
  "4174": "need",
  "4175": "toĠtheĠGovernor",
  "4176": "nameĠ",
  "4177": "ceaseĠ",
  "4178": "ĠaĠLegislativeĠCouncil",
  "4179": "econdĠ\n",
  "4180": "ĠtheĠcor",
  "4181": "ActĠofĠtheĠ",
  "4182": "exceptĠtheĠ",
  "4183": "directĠthat",
  "4184": "239A",
  "4185": "asur",
  "4186": "ĠallĠmatter",
  "4187": "specifyĠ",
  "4188": "ĠDistrictĠCouncil",
  "4189": "urb",
  "4190": "MunicipalityĠ",
  "4191": "develop",
  "4192": "goodsĠ",
  "4193": "Ġincom",
  "4194": "Ruler",
  "4195": "Bodol",
  "4196": "specifiedĠinĠtheĠorder",
  "4197": "territoriesĠreferredĠto",
  "4198": "MaharashtraĠ",
  "4199": ".ĠEntryĠ",
  "4200": "ĠhasĠbeenĠamendedĠinĠitsĠapplicationĠtoĠtheĠ",
  "4201": "ĠparagraphĠ3",
  "4202": "ĠpoliticalĠpar",
  "4203": "boundaryĠshallĠbeĠ",
  "4204": "anga",
  "4205": ".8",
  "4206": "ĠBhurungamari",
  "4207": "Masald",
  "4208": ".,Ġ",
  "4209": "ĠStates",
  "4210": "sĠmadeĠ",
  "4211": "citizenship",
  "4212": "igr",
  "4213": "onĠground",
  "4214": "institution",
  "4215": "givingĠ",
  "4216": "national",
  "4217": ".ĠRestriction",
  "4218": "CY",
  "4219": "ork",
  "4220": "47",
  "4221": "ealth",
  "4222": "safeguard",
  "4223": "50",
  "4224": "epar",
  "4225": ".ĠElection",
  "4226": "Oath",
  "4227": "Ġmembership",
  "4228": "essions",
  "4229": "Ġpresid",
  "4230": "SpeakerĠandĠDeputyĠSpeaker",
  "4231": "ĠandĠvoting",
  "4232": "Members",
  "4233": "bothĠHouses",
  "4234": ".ĠAn",
  "4235": "nualĠfinancialĠs",
  "4236": "redit",
  "4237": "ussion",
  "4238": "eĠinto",
  "4239": "ĠofĠĠtheĠ",
  "4240": "NationalĠ",
  "4241": "lateĠ",
  "4242": "rimin",
  "4243": "ders",
  "4244": "ervan",
  "4245": "expens",
  "4246": ".ĠInterpretation",
  "4247": "ĠorĠc",
  "4248": "ĠandĠ\ntheĠ",
  "4249": "Ġ\nrelation",
  "4250": "Ġ\nĠ2",
  "4251": "liver",
  "4252": "Metro",
  "4253": "Metropol",
  "4254": "Metropolitan",
  "4255": "LegislaturesĠofĠ",
  "4256": "58",
  "4257": "ĠrelationĠtoĠ",
  "4258": "61",
  "4259": "64",
  "4260": "Ġpurch",
  "4261": "seĠ",
  "4262": "Ġproperty",
  "4263": "liabilities",
  "4264": "cours",
  "4265": "Ġimpos",
  "4266": "vary",
  "4267": "ublicĠServiceĠ\n",
  "4268": "ublicĠServiceĠ\nCommission",
  "4269": "issions",
  "4270": "ationĠofĠseatsĠ",
  "4271": "eĠofĠ\ntheĠ",
  "4272": "services",
  "4273": "allyĠandĠeducationallyĠ",
  "4274": "UA",
  "4275": "ĠoneĠ",
  "4276": "maryĠ",
  "4277": "Ġdevelopment",
  "4278": "Ġ\narticleĠ",
  "4279": "esĠtoĠbeĠ",
  "4280": "olem",
  "4281": "olemn",
  "4282": ",Ġibid.,ĠforĠ\"",
  "4283": "ĠaforesaidĠ",
  "4284": "ĠatĠleastĠ",
  "4285": ",Ġm",
  "4286": "ĠbyĠtheĠ\n",
  "4287": ",ĠinĠtheĠ",
  "4288": "requires",
  "4289": "equal",
  "4290": "ity,Ġ",
  "4291": "—Ġ\n______________________________________________Ġ\n1",
  "4292": "III.—Fundament",
  "4293": "III.—FundamentalĠRights",
  "4294": "III.—FundamentalĠRights)Ġ",
  "4295": "StateĠfromĠmaking",
  "4296": "special",
  "4297": ",Ġwhich",
  "4298": "18-6-",
  "4299": "18-6-1951",
  "4300": "1956,Ġs.Ġ29ĠandĠSch.",
  "4301": "ĠconnectionĠwithĠtheĠ",
  "4302": "ĠofficeĠofĠprof",
  "4303": "ations",
  "4304": "roughout",
  "4305": "clauseĠ(1)Ġ",
  "4306": "ĠofĠtheĠsaidĠ",
  "4307": "ĠasĠitĠ",
  "4308": "clause",
  "4309": "5-10-1963",
  "4310": "Ġown",
  "4311": "nor",
  "4312": "fourteen",
  "4313": "2002",
  "4314": "vis",
  "4315": "______________________________________________Ġ\n",
  "4316": "Ġopinion",
  "4317": "UnionĠterritoryĠofĠ",
  "4318": "When",
  "4319": ",ĠasĠsoon",
  "4320": "ĠasĠisĠreferredĠtoĠin",
  "4321": "ĠtheĠprocedureĠ",
  "4322": "Ġpurposes",
  "4323": "wear",
  "4324": "guar",
  "4325": "theĠrightĠto",
  "4326": "LegislatureĠofĠaĠState",
  "4327": "mean",
  "4328": "Ġbeen",
  "4329": "illsĠ",
  "4330": "Ġorganisation",
  "4331": "ĠareaĠ",
  "4332": "group",
  "4333": "directĠ",
  "4334": ".ĠIns.ĠbyĠs.Ġ",
  "4335": "Forty-secondĠAmendment)ĠĠ",
  "4336": "Forty-secondĠAmendment)ĠĠAct,Ġ1976",
  "4337": "remain",
  "4338": "tedĠ\n",
  "4339": "AĠperson",
  "4340": ",ĠandĠif",
  "4341": "ChiefĠ\n",
  "4342": "ĠofĠtheĠHous",
  "4343": "hasĠbeenĠs",
  "4344": "enceĠof",
  "4345": ",Ġan",
  "4346": "caseĠmayĠbe",
  "4347": "furtherĠsub",
  "4348": "thĠAmendment)ĠAct,Ġ\n1956,Ġs.Ġ29ĠandĠSch.Ġ(w.e.f.Ġ1-11-1956",
  "4349": "ConstitutionĠ(SeventhĠAmendment)ĠAct,Ġ1956,Ġs.Ġ29ĠandĠSch.Ġ(w.e.f.Ġ1-11-1956",
  "4350": "earlier",
  "4351": "1-2004",
  "4352": "ItĠshallĠbeĠtheĠdutyĠofĠtheĠ",
  "4353": "datedĠtheĠ",
  "4354": "ins.ĠbyĠtheĠConstitutionĠ(",
  "4355": "sĠrelatingĠtoĠtheĠ",
  "4356": "ĠrelatingĠtoĠtheĠ",
  "4357": "LegislativeĠAssemblyĠofĠtheĠStateĠ",
  "4358": "ĠofĠseat",
  "4359": "Ġlong",
  "4360": ").Ġ\n4.ĠSubs.ĠbyĠtheĠConstitutionĠ(",
  "4361": "nearly",
  "4362": "ĠofĠsixĠmonth",
  "4363": "Ġbecom",
  "4364": "holdingĠofficeĠ",
  "4365": "Ġpresent",
  "4366": "Ġand,Ġuntil",
  "4367": "ĠconsultationĠwithĠtheĠ",
  "4368": "membersĠ",
  "4369": "subsequent",
  "4370": "LegislatureĠofĠtheĠState",
  "4371": "ĠanyĠquestion",
  "4372": "Ġpen",
  "4373": "ĠrespectĠofĠtheĠ",
  "4374": "(2)",
  "4375": "ĠofĠarticlesĠ",
  "4376": "AĠBill",
  "4377": "Ġ\ncons",
  "4378": "underĠclauseĠ(1)Ġ",
  "4379": "Ġ\nrespectĠto",
  "4380": "withdraw",
  "4381": "moneys",
  "4382": "Ġincident",
  "4383": "expenditur",
  "4384": "ward",
  "4385": "Ġ\nth",
  "4386": "includingĠtheĠ",
  "4387": "ying",
  "4388": "2019Ġ(",
  "4389": "judgmentĠ",
  "4390": "JudgeĠofĠaĠ",
  "4391": "ChiefĠJusticeĠofĠIndia",
  "4392": "rightsĠin",
  "4393": "ĠtheĠprev",
  "4394": "stan",
  "4395": "stanti",
  "4396": "ĠtheĠcours",
  "4397": "byĠrul",
  "4398": "hat",
  "4399": ")ĠAct,Ġ1969Ġ(",
  "4400": "ĠaĠmemberĠofĠaĠ",
  "4401": "ĠtheĠpar",
  "4402": "rovidedĠthatĠif",
  "4403": "istrictĠ\n",
  "4404": "1962",
  "4405": "Sixty-",
  "4406": "wholeĠor",
  "4407": "Ġbear",
  "4408": "immediatelyĠbeforeĠsuch",
  "4409": "assign",
  "4410": "shallĠapplyĠtoĠtheĠ",
  "4411": "ĠĠĠĠĠĠ\n",
  "4412": "subjectĠtoĠsuchĠexcep",
  "4413": "ĠtheĠcontinu",
  "4414": "ĠtheĠcorrespondingĠ",
  "4415": "Schedule,Ġ",
  "4416": "ĠautonomousĠdistrict",
  "4417": "1959",
  "4418": "Ġ)Ġ\n",
  "4419": "ĠofĠthirtyĠ",
  "4420": "Boundaries",
  "4421": "Hary",
  "4422": "ĠCh",
  "4423": "Ġup",
  "4424": "2-4-",
  "4425": "2-4-1970",
  "4426": ".Ġ(i)Ġ",
  "4427": "SeventhĠSchedule)ĠĠ\nĠ3",
  "4428": ").ĠTHEĠCONSTITUTIONĠOFĠĠINDIAĠ\n(NinthĠSchedule)Ġ",
  "4429": "ĠofĠ1961",
  "4430": "AgriculturalĠLandsĠ(",
  "4431": "RevenueĠ",
  "4432": "Ġ(CentralĠActĠ",
  "4433": "WestĠBengalĠLandĠReformsĠ(",
  "4434": "boundaryĠshallĠbeĠdrawn",
  "4435": "Ġ\n(Fragment)Ġ",
  "4436": "Ġ\n[",
  "4437": "plicationĠtoĠ",
  "4438": "ĠĠĠĠĠ\n",
  "4439": ".Ġ\n[",
  "4440": "irst",
  "4441": "foreignĠ",
  "4442": "GH",
  "4443": "consistentĠ",
  "4444": "consistentĠwith",
  "4445": "Ġopportun",
  "4446": "ĠinĠrespectĠofĠ",
  "4447": "aving",
  "4448": "principl",
  "4449": "Ġsoci",
  "4450": "co-operativeĠsocieties",
  "4451": "Ġcivil",
  "4452": "ageĠof",
  "4453": "ĠtoĠfill",
  "4454": "hisĠ\n",
  "4455": "vacanci",
  "4456": "nectedĠ",
  "4457": "executiveĠpowerĠofĠtheĠUnion",
  "4458": "torne",
  "4459": ".ĠCom",
  "4460": "esĠofĠ\n",
  "4461": "Ġ9",
  "4462": "powerĠofĠ",
  "4463": "quorum",
  "4464": "Jo",
  "4465": "grant",
  "4466": "Judic",
  "4467": "ĠregardĠto",
  "4468": "4A",
  "4469": "ĠandĠpowers",
  "4470": "issueĠ",
  "4471": "ingĠon",
  "4472": "TES",
  "4473": "69",
  "4474": "Assembli",
  "4475": "HouseĠor",
  "4476": "Ġanother",
  "4477": "IN",
  "4478": "mag",
  "4479": "positionĠofĠ",
  "4480": "udit",
  "4481": "ĠofĠmembers",
  "4482": "goodsĠandĠservicesĠtax",
  "4483": "legislation",
  "4484": "TRA",
  "4485": "ĠRE",
  "4486": "river",
  "4487": "TY",
  "4488": "65",
  "4489": "tingencyĠ",
  "4490": "eĠorĠpurch",
  "4491": "lap",
  "4492": "restriction",
  "4493": "ĠĠin",
  "4494": "conditionsĠofĠservic",
  "4495": "Comm",
  "4496": "Tribunal",
  "4497": "eligibleĠfor",
  "4498": "roll",
  "4499": "HindiĠlanguag",
  "4500": "tec",
  "4501": "currentĠ",
  "4502": "Manip",
  "4503": "AndhraĠPradeshĠ",
  "4504": "AreasĠ",
  "4505": "ListĠIII",
  "4506": "ĠitsĠ",
  "4507": ".Ġ\n1[(",
  "4508": "inksĠfit",
  "4509": ",Ġs.Ġ5Ġ(w.e.f.Ġ",
  "4510": "eĠshallĠbeĠ",
  "4511": "SeventhĠAmendment)ĠAct,Ġ1956,Ġs.Ġ2",
  "4512": "PartĠI",
  "4513": ")Ġto",
  "4514": "368",
  "4515": "-12-",
  "4516": "PartĠBĠofĠtheĠFirstĠSchedule",
  "4517": "GovernmentĠofĠIndiaĠ",
  "4518": "enac",
  "4519": "ĠaĠcitizenĠofĠIndia",
  "4520": "sixĠmonth",
  "4521": "ountr",
  "4522": "virt",
  "4523": "virtu",
  "4524": "virtueĠof",
  "4525": "unlessĠtheĠcon",
  "4526": "void",
  "4527": "ĠandĠanyĠ",
  "4528": "atedĠ\n",
  "4529": "advan",
  "4530": "ateĠ\n",
  "4531": "sĠreferredĠtoĠin",
  "4532": ";ĠandĠ",
  "4533": "ĠtheĠcaseĠofĠ",
  "4534": "ĠorĠclass",
  "4535": "require",
  "4536": "isĠnot",
  "4537": "eni",
  "4538": "e.]Ġ\n",
  "4539": "getherĠwith",
  "4540": "shallĠaffec",
  "4541": "ĠconnectionĠwithĠtheĠaffair",
  "4542": "inĠanyĠ",
  "4543": "ĠaĠm",
  "4544": "exerciseĠofĠtheĠ",
  "4545": "ĠandĠintegr",
  "4546": ".Ġ\n______________________________________________Ġ\n1.ĠIns.ĠbyĠtheĠConstitutionĠ(",
  "4547": "withĠretrospectiveĠ",
  "4548": "ĠinĠforceĠ",
  "4549": "tition",
  "4550": "month",
  "4551": "ĠofĠaĠHighĠCourtĠ",
  "4552": "appropriateĠ",
  "4553": "ĠChairman",
  "4554": ":Ġ\nProvidedĠfurtherĠthat",
  "4555": "Ġpursu",
  "4556": "inĠthisĠbehalf",
  "4557": ")ĠofĠclauseĠ(",
  "4558": "ognis",
  "4559": "erveĠ",
  "4560": "fix",
  "4561": "Ġmak",
  "4562": "toĠhim",
  "4563": "shallĠalso",
  "4564": ",Ġa",
  "4565": ";]",
  "4566": "1969",
  "4567": "judgment,Ġdecre",
  "4568": "calledĠinĠ",
  "4569": "calledĠinĠquestion",
  "4570": "ĠanyĠcourtĠ",
  "4571": "truck",
  "4572": "certi",
  "4573": ",ĠforĠart.Ġ",
  "4574": "doneĠ",
  "4575": "ĠanyĠofĠtheĠmatter",
  "4576": "endea",
  "4577": "endeavour",
  "4578": "areĠ",
  "4579": "ring",
  "4580": "toĠhaveĠ",
  "4581": "high",
  "4582": "ConstitutionĠĠ(Forty-secondĠAmendment)ĠĠAct,Ġ1976",
  "4583": ";ĠandĠ\n(b)Ġ",
  "4584": "NationalĠC",
  "4585": "NationalĠCapit",
  "4586": "Pondicherry",
  "4587": "Ġ2[",
  "4588": "ĠorĠtheĠGovernment",
  "4589": "owancesĠandĠ",
  "4590": "ai",
  "4591": "ĠthatĠIĠwill",
  "4592": "olemnly",
  "4593": "olemnlyĠaffir",
  "4594": "olemnlyĠaffirm",
  "4595": "ĠserviceĠ",
  "4596": "two-",
  "4597": "two-third",
  "4598": "membership",
  "4599": "ĠtheĠperson",
  "4600": "aĠmember",
  "4601": "ĠsomeĠ",
  "4602": "Ġfaith",
  "4603": "Until",
  "4604": ".]Ġ\n(2)Ġ",
  "4605": "expiry",
  "4606": "mayĠfromĠtimeĠtoĠtimeĠ",
  "4607": "alloc",
  "4608": "administration",
  "4609": "notĠex",
  "4610": "”ĠmeansĠtheĠ",
  "4611": "Ġ(w.e.f.Ġ1-11-1956",
  "4612": ",ĠinĠtheĠcaseĠof",
  "4613": "teenthĠAmendment)ĠAct,Ġ",
  "4614": "placeĠ",
  "4615": "ĠrequiredĠ",
  "4616": "recruit",
  "4617": "ok",
  "4618": ").ĠThisĠamendmentĠ",
  "4619": "eeĠtheĠ",
  "4620": "ĠaĠMoneyĠBill",
  "4621": "recommendations",
  "4622": "sĠunder",
  "4623": "Ġaccount",
  "4624": "Ġtherefrom",
  "4625": "ĠofĠthatĠ\n",
  "4626": "recommendationĠofĠtheĠ",
  "4627": "communication",
  "4628": "havingĠ",
  "4629": "ketsĠandĠ",
  "4630": "AmendmentĠAct,Ġ",
  "4631": "Ġ117",
  "4632": "59",
  "4633": "ĠtheĠconstitution",
  "4634": "concern",
  "4635": "SupremeĠ\n",
  "4636": "isĠ\n",
  "4637": "provideĠforĠtheĠ",
  "4638": "GovernorĠmay,Ġ",
  "4639": "ĠofĠ\nthis",
  "4640": "hisĠdiscretion",
  "4641": "GovernmentĠofĠtheĠStateĠ",
  "4642": ";ĠĠ\n(",
  "4643": "HousesĠofĠtheĠ",
  "4644": "7\n",
  "4645": "ĠAct,Ġ1986Ġ(",
  "4646": "commencementĠofĠtheĠConstitutionĠ(",
  "4647": "opy",
  "4648": "ĠofĠ2019",
  "4649": "Territory",
  "4650": "Ġ(w.e.f.Ġ15-",
  "4651": "prepar",
  "4652": "Ġmean",
  "4653": "tableĠ",
  "4654": "ĠparagraphĠ20",
  "4655": "Ġwater",
  "4656": "ways",
  "4657": "tam",
  "4658": "Ġcommen",
  "4659": "7-9-",
  "4660": "andid",
  "4661": "VI.Ġ—",
  "4662": "VI.Ġ—SpecialĠP",
  "4663": "VI.Ġ—SpecialĠProvisionsĠ",
  "4664": "VI.Ġ—SpecialĠProvisionsĠRe",
  "4665": "VI.Ġ—SpecialĠProvisionsĠRelatingĠto",
  "4666": "VI.Ġ—SpecialĠProvisionsĠRelatingĠtoĠC",
  "4667": "VI.Ġ—SpecialĠProvisionsĠRelatingĠtoĠCertain",
  "4668": "VI.Ġ—SpecialĠProvisionsĠRelatingĠtoĠCertainĠC",
  "4669": "VI.Ġ—SpecialĠProvisionsĠRelatingĠtoĠCertainĠClasses",
  "4670": "VI.Ġ—SpecialĠProvisionsĠRelatingĠtoĠCertainĠClasses)Ġ",
  "4671": "andĠTerritor",
  "4672": "ĠofĠthirtyĠday",
  "4673": "hab",
  "4674": "butĠnotĠ",
  "4675": "regionalĠc",
  "4676": "regionalĠcouncil",
  "4677": "AdministrativeĠ",
  "4678": "AlterationĠofĠBoundaries",
  "4679": "Ġsub-paragraphĠ(2)",
  "4680": "underĠthisĠparagraph",
  "4681": "71(i",
  "4682": "ReorganisationĠ(",
  "4683": "ReorganisationĠ(Meghalaya",
  "4684": "55ĠofĠ1969",
  "4685": "ĠanĠautonomousĠregion",
  "4686": "ĠorĠregion",
  "4687": "reventionĠofĠ",
  "4688": "Regulation,Ġ",
  "4689": "eb",
  "4690": "WestĠBengalĠActĠ",
  "4691": "ĠCeilingĠ",
  "4692": "ĠAgriculturalĠ",
  "4693": "ĠofĠ1973).Ġ\n",
  "4694": "ĠofĠ1976).Ġ\n",
  "4695": "tocol",
  "4696": "kuch",
  "4697": "Patgram",
  "4698": "ĠMathabhangaĠ",
  "4699": "Ġ\nĠ(ii)Ġ",
  "4700": "ĠĠ\nĠ(",
  "4701": "thĠAmendment)ĠAct,Ġ2015",
  "4702": "respectivelyĠ",
  "4703": "Ġrefer",
  "4704": "ecret",
  "4705": "t.",
  "4706": "ĠĠĠ\n",
  "4707": "ĠpersonsĠ",
  "4708": "fund",
  "4709": "regard",
  "4710": ".Ġ\n20",
  "4711": "Ġoffences",
  "4712": "hum",
  "4713": ".Ġ\n24",
  "4714": "Ġrelig",
  "4715": "Ġadminister",
  "4716": "ĠofĠpro",
  "4717": "ingĠfor",
  "4718": "givingĠeffectĠto",
  "4719": ".]ĠĠ\n",
  "4720": "ĠofĠthisĠPart",
  "4721": "45",
  "4722": "46",
  "4723": "band",
  "4724": "49",
  "4725": "importance",
  "4726": "51",
  "4727": "OathĠorĠaffirmation",
  "4728": "sĠĠ",
  "4729": "Other",
  "4730": "ĠprovisionsĠasĠtoĠ",
  "4731": "torney-",
  "4732": "furnish",
  "4733": ".Ġ\nĠC",
  "4734": "adjust",
  "4735": "sĠbyĠtheĠ",
  "4736": "ChairmanĠandĠ",
  "4737": "ChairmanĠandĠDeputyĠChairman",
  "4738": "Vac",
  "4739": "ChairmanĠorĠtheĠ",
  "4740": "ationĠofĠseat",
  "4741": ".ĠDisqualification",
  "4742": "questions",
  "4743": "ĠasĠtoĠdis",
  "4744": "Ġdisqualifi",
  "4745": ".ĠPowers",
  "4746": ",ĠofĠtheĠ",
  "4747": "ĠprocedureĠ",
  "4748": "credit",
  "4749": "Ordin",
  "4750": "ĠandĠservan",
  "4751": "-\n",
  "4752": "FormĠof",
  "4753": "ĠofĠStateĠ",
  "4754": "Ġ\nS",
  "4755": "HighĠ\nCourt",
  "4756": "ourtĠto",
  "4757": "intend",
  "4758": "0,Ġ",
  "4759": "Ġboth",
  "4760": "ureĠof",
  "4761": "Ġfin",
  "4762": "anceĠofĠ",
  "4763": "ĠANDĠTHE",
  "4764": "byĠtheĠ\n",
  "4765": "246A",
  "4766": "Ġ\nfor",
  "4767": "StatesĠinĠ",
  "4768": "Ġoutsid",
  "4769": ".ĠTaxesĠ",
  "4770": "eĠofĠinter",
  "4771": "requiredĠ",
  "4772": "GoodsĠandĠServicesĠTaxĠCouncil",
  "4773": "electric",
  "4774": "uccession",
  "4775": "trade,Ġ",
  "4776": "priv",
  "4777": "electoralĠroll",
  "4778": "ĠTO",
  "4779": "specialĠ",
  "4780": "grantsĠ",
  "4781": "NGUA",
  "4782": "NGUAG",
  "4783": "cilities",
  "4784": "tag",
  "4785": "Ġmin",
  "4786": "ERGEN",
  "4787": "ERGENCY",
  "4788": "ERGENCYĠPROVISIONS",
  "4789": "ĠduringĠ",
  "4790": "ĠarisingĠout",
  "4791": "procedur",
  "4792": ".ĠSpecialĠprovisionĠwithĠrespectĠtoĠtheĠ",
  "4793": "Nagaland",
  "4794": "Ġ\np",
  "4795": "Provinc",
  "4796": "receiv",
  "4797": "ĠĠ\nĠĠĠĠ",
  "4798": "HouseĠofĠ",
  "4799": "sĠorĠ",
  "4800": "vember,Ġ",
  "4801": "AmendmentĠ)ĠAct,Ġ",
  "4802": "(w.e.f.Ġ1-11-1956",
  "4803": "PresidentĠmay",
  "4804": "StateĠorĠ",
  "4805": "necessaryĠtoĠ",
  "4806": "1955",
  "4807": "aĠc",
  "4808": "ĠshallĠbeĠdeemedĠtoĠbeĠ",
  "4809": "Ġorigin",
  "4810": "beforeĠtheĠ\n",
  "4811": "Ġhas",
  "4812": "return",
  "4813": "ettl",
  "4814": "unlessĠtheĠcontext",
  "4815": "ĠasĠthey",
  "4816": "law,Ġ",
  "4817": "ĠorĠanyĠpartĠthereof",
  "4818": "then",
  "4819": "ĠorĠany",
  "4820": "ScheduledĠTribesĠin",
  "4821": "ĠofĠ\narticleĠ",
  "4822": "ouldĠbeĠ",
  "4823": "FirstĠAmendment)ĠAct,Ġ1951",
  "4824": ",ĠforĠcertainĠword",
  "4825": "tivelyĠ",
  "4826": "postsĠin",
  "4827": ",ĠshallĠbeĠ",
  "4828": "StateĠshall",
  "4829": "ĠanyĠpartĠofĠtheĠ",
  "4830": "Ġoc",
  "4831": "Ġreas",
  "4832": "overeign",
  "4833": "overeignty",
  "4834": "Ġc)",
  "4835": "clausesĠ(",
  "4836": ",ĠĠforĠ\"",
  "4837": "sam",
  "4838": "withoutĠ",
  "4839": "excludingĠtheĠ",
  "4840": "ĠsuchĠperson",
  "4841": "Ġapply",
  "4842": "ĠthreeĠ",
  "4843": ",Ġ\nor",
  "4844": "______________________________________________Ġ\n",
  "4845": "notĠlessĠthanĠ",
  "4846": "authorityĠ",
  "4847": "irc",
  "4848": "2),ĠtheĠ",
  "4849": "whichĠareĠ",
  "4850": "Ġrec",
  "4851": "duct",
  "4852": "itiesĠ",
  "4853": "guaran",
  "4854": "guarante",
  "4855": ").ĠĠĠ\n2",
  "4856": "econd",
  "4857": "ĠtheĠconsiderationĠofĠtheĠ",
  "4858": "edĠtherein",
  "4859": "ĠisĠ\n",
  "4860": ",ĠinĠrelationĠto",
  "4861": "meaning",
  "4862": "eĠtoĠtheĠ",
  "4863": "subjectĠtoĠtheĠ",
  "4864": "havingĠbeen",
  "4865": "byĠtheĠConstitutionĠ(",
  "4866": "13-4-1978",
  "4867": "validĠ",
  "4868": "truckĠd",
  "4869": "truckĠdown",
  "4870": "ĠthisĠarticleĠ",
  "4871": "ethĠAmendment)ĠAct,Ġ",
  "4872": "1984",
  "4873": ",ĠmakeĠ",
  "4874": "edĠorĠre",
  "4875": "veli",
  "4876": "ĠbothĠ",
  "4877": ".ĠArt.Ġ",
  "4878": "government",
  "4879": "ural",
  "4880": "sĠand",
  "4881": "ryĠ",
  "4882": "disposal",
  "4883": ";Ġ\n(g",
  "4884": "confer",
  "4885": "ĠofĠeitherĠHouseĠofĠ",
  "4886": "lastĠ",
  "4887": "Ġpublish",
  "4888": "dateĠonĠwhichĠheĠ",
  "4889": "ritingĠ",
  "4890": ";Ġ\n(c)ĠtheĠ",
  "4891": ",Ġs.Ġ2,ĠforĠ\"",
  "4892": "emoluments",
  "4893": "ĠprovisionĠinĠthatĠbehalf",
  "4894": "owances",
  "4895": "execut",
  "4896": "Ġ\nwhich",
  "4897": "edĠbyĠaĠ",
  "4898": "two-thirdsĠofĠtheĠ",
  "4899": "investig",
  "4900": "Ġappear",
  "4901": "fromĠhisĠofficeĠ",
  "4902": "salary",
  "4903": "dateĠonĠwhichĠtheĠ",
  "4904": "eitherĠHous",
  "4905": "removedĠ",
  "4906": "exist",
  "4907": "edĠbyĠa",
  "4908": "LegislatureĠofĠtheĠ\n",
  "4909": "consideration",
  "4910": ",Ġinclud",
  "4911": "fifteen",
  "4912": "duringĠtheĠ",
  "4913": "eĠaĠ",
  "4914": "ceiveĠ",
  "4915": "takenĠin",
  "4916": "accord",
  "4917": "5)ĠTheĠ",
  "4918": "7[",
  "4919": "numberĠofĠseatsĠ",
  "4920": ",Ġs.Ġ4,ĠforĠ\"",
  "4921": "Ġclause",
  "4922": "1991",
  "4923": "shallĠcontinueĠ",
  "4924": "asĠaĠ",
  "4925": "ĠtheĠproceeding",
  "4926": "omit",
  "4927": "ĠtheĠoffic",
  "4928": "suchĠother",
  "4929": "removal",
  "4930": "paidĠtoĠtheĠ",
  "4931": "alariesĠandĠallowances",
  "4932": "ach",
  "4933": "ĠofĠanyĠlawĠmadeĠ",
  "4934": ",Ġ\ns.Ġ",
  "4935": "immediatelyĠbeforeĠtheĠcommencementĠofĠthisĠConstitution",
  "4936": "ĠorĠwith",
  "4937": "ĠhasĠbeenĠpassedĠbyĠtheĠ",
  "4938": "toĠme",
  "4939": "correspond",
  "4940": "Ġarisen",
  "4941": "Ġamoun",
  "4942": "authoris",
  "4943": "ail",
  "4944": "courtĠ",
  "4945": "heĠmayĠ",
  "4946": "ĠOrdinanceĠ",
  "4947": "13-4-2015",
  "4948": "Advocates",
  "4949": "RecordĠ",
  "4950": "RecordĠAss",
  "4951": "RecordĠAssoci",
  "4952": "16-10-",
  "4953": "IRĠ2016",
  "4954": "IRĠ2016ĠSC",
  "4955": "IRĠ2016ĠSCĠ117",
  "4956": "ingĠtoĠtheĠ",
  "4957": "1986",
  "4958": "fact",
  "4959": "2\n",
  "4960": "hear",
  "4961": "existingĠ\n",
  "4962": "doc",
  "4963": "laidĠbeforeĠeach",
  "4964": ":Ġ\n______________________________________________Ġ\n1",
  "4965": ",Ġibid.Ġ(w.e.f.Ġ1-11-1956",
  "4966": "SeventhĠAmendment)ĠAct,Ġ1956,Ġs.Ġ",
  "4967": "Oris",
  "4968": "Orissa",
  "4969": "edĠbyĠtheĠGovernor",
  "4970": "5-1960",
  "4971": "Ġ\nN",
  "4972": "LegislativeĠAssemblyĠofĠ",
  "4973": "(3)Ġ",
  "4974": "1976",
  "4975": "ĠProvin",
  "4976": ".—Ġ(1)ĠTheĠ",
  "4977": "tyĠyears",
  "4978": ".ĠSubs.ĠbyĠtheĠNorth-EasternĠAreasĠ(Reorganisation)ĠAct,Ġ1971Ġ(81ĠofĠ1971),Ġs.Ġ",
  "4979": "ĠasĠ\ntheĠ",
  "4980": "Ġaction",
  "4981": "itu",
  "4982": "ArticlesĠ",
  "4983": "Ġdistrict",
  "4984": "Ġincluding",
  "4985": "ĠinĠwhichĠtheĠ",
  "4986": "edĠon",
  "4987": "sĠ\nandĠ",
  "4988": "*Ġ",
  "4989": "Co",
  "4990": "opulation",
  "4991": "lakh",
  "4992": "THEĠCONSTITUTIONĠOFĠĠINDIAĠ\n(PartĠIX",
  "4993": "impl",
  "4994": "distribution",
  "4995": "measur",
  "4996": "actionĠtaken",
  "4997": "Ġ\nCommission",
  "4998": "oneĠyear",
  "4999": "DistrictĠ",
  "5000": "developmentĠ",
  "5001": "hadĠbeen",
  "5002": "railway",
  "5003": "[P",
  "5004": "BodolandĠTerritor",
  "5005": "SecondĠ\n",
  "5006": ",Ġ\n(",
  "5007": "les",
  "5008": "politicalĠpartyĠ",
  "5009": "adĠ",
  "5010": "sub-sectionĠ(Ġ1)",
  "5011": "territoriesĠreferredĠtoĠinĠ",
  "5012": "ĠofĠ2000",
  "5013": "),Ġs.Ġ6",
  "5014": "districts",
  "5015": "EighthĠSch.",
  "5016": "AssamĠReorganisationĠ(Meghalaya",
  "5017": ")ĠAct,Ġ1969Ġ(55ĠofĠ1969",
  "5018": ")ĠAct,Ġ1969Ġ(55ĠofĠ1969),Ġs.Ġ",
  "5019": ")ĠAct,Ġ1969Ġ(55ĠofĠ1969),Ġs.Ġ74",
  "5020": "Ġinser",
  "5021": "utonomousĠCouncil",
  "5022": "hic",
  "5023": ";Ġ(",
  "5024": "XXX",
  "5025": "MadhyaĠPradeshĠActĠ",
  "5026": "No.Ġ",
  "5027": "RajasthanĠActĠ",
  "5028": "ĠofĠ1972).Ġ\n",
  "5029": ")Ġ\n(",
  "5030": "AmendmentĠAct,Ġ197",
  "5031": "protocol",
  "5032": "Ġ4Ġ5",
  "5033": "ĠDeb",
  "5034": "ĠDebiganj",
  "5035": "ĠMathabhangaĠPatgram",
  "5036": "ating",
  "5037": "tex",
  "5038": "OneĠHundredthĠAmendment)ĠAct,Ġ2015",
  "5039": "TIONS",
  "5040": "SE",
  "5041": "........................................................",
  "5042": "ĠĠĠ″",
  "5043": "Ġ\nĠĠ",
  "5044": "First",
  "5045": "volun",
  "5046": ".ĠProtectionĠofĠ",
  "5047": "human",
  "5048": "lab",
  "5049": "labour",
  "5050": "child",
  "5051": "Freedom",
  "5052": "prop",
  "5053": "Ġactiv",
  "5054": "rightsĠconferredĠby",
  "5055": "toĠbeĠfollow",
  "5056": "42",
  "5057": "Ġsix",
  "5058": "Ġyear",
  "5059": "ScheduledĠ\n",
  "5060": "8A",
  "5061": "onment",
  "5062": "ecutiveĠ",
  "5063": "Ġ\nandĠtheĠ",
  "5064": "sent",
  "5065": "ĠCouncilĠofĠMinister",
  "5066": "ĠandĠadv",
  "5067": "ĠofĠtheĠGovernmentĠofĠIndia",
  "5068": ".ĠDuties",
  "5069": "meĠMinister",
  "5070": "orog",
  "5071": "esĠtoĠ",
  "5072": "ĠorĠotherĠperson",
  "5073": "Ġas,Ġ",
  "5074": "ĠnotĠto",
  "5075": "movalĠfrom",
  "5076": "movalĠfromĠofficeĠ",
  "5077": ".ĠSalariesĠandĠallowanc",
  "5078": ",Ġprivileg",
  "5079": "nualĠfinancialĠstatement",
  "5080": "procedure",
  "5081": "Ġdiscussion",
  "5082": "CIA",
  "5083": "NationalĠJudic",
  "5084": "Ġconstitution",
  "5085": "underĠ",
  "5086": "exercisableĠbyĠtheĠ",
  "5087": "ĠSTATES",
  "5088": "Ġ\nCHAPTERĠI",
  "5089": "HAPTERĠII",
  "5090": "ConstitutionĠofĠ",
  "5091": "esĠtoĠtheĠ",
  "5092": "the",
  "5093": "uper",
  "5094": "uperintend",
  "5095": "twoĠorĠmoreĠStates",
  "5096": "fail",
  "5097": "xv",
  "5098": "s.Ġ\n243",
  "5099": "ĠbodyĠ",
  "5100": "PARTĠX",
  "5101": "ject",
  "5102": "aters",
  "5103": "betweenĠtheĠUnionĠandĠtheĠStates",
  "5104": "expor",
  "5105": "netĠ",
  "5106": "netĠproceed",
  "5107": "arry",
  "5108": "PU",
  "5109": "tribunals",
  "5110": "ence,Ġ",
  "5111": "ĠandĠcontrol",
  "5112": "ĠtoĠbeĠ\n",
  "5113": "Ġspecial",
  "5114": "Ġ\ninĠtheĠ",
  "5115": "Anglo-IndianĠcommun",
  "5116": "esĠofĠtheĠStates",
  "5117": "OfficialĠ",
  "5118": "60",
  "5119": "Manipur",
  "5120": "Univers",
  "5121": "reventiveĠ",
  "5122": "diffic",
  "5123": "difficul",
  "5124": "ComptrollerĠandĠAuditor-GeneralĠofĠIndia",
  "5125": "s.2",
  "5126": "State”",
  "5127": "esĠnotĠ",
  "5128": ".ĠTheĠwordsĠandĠlettersĠ\"",
  "5129": ")ĠĠAct,Ġ",
  "5130": "ilyĠ",
  "5131": "preceding",
  "5132": "Act,Ġ19",
  "5133": "1948",
  "5134": "ĠinĠIndia",
  "5135": "presenta",
  "5136": "InĠthisĠ",
  "5137": "takes",
  "5138": "ĠofĠthem",
  "5139": "plac",
  "5140": "s,Ġb",
  "5141": "road",
  "5142": "ĠorĠpart",
  "5143": "shallĠpreventĠtheĠ",
  "5144": "sociallyĠandĠeducationallyĠ",
  "5145": ".]ĠĠ",
  "5146": "Ġ\n3[(",
  "5147": "8\n",
  "5148": "ĠorĠclassesĠofĠ",
  "5149": "underĠtheĠGovernment",
  "5150": "orĠUnionĠterritory",
  "5151": "numberĠofĠ",
  "5152": ".]Ġ\n______________________________________________Ġ\n1.ĠSubs.ĠbyĠtheĠConstitutionĠ(",
  "5153": "1995",
  "5154": ".Ġ—\n",
  "5155": "overeigntyĠandĠintegr",
  "5156": "exerciseĠof",
  "5157": "chn",
  "5158": "ate",
  "5159": "(4)Ġ",
  "5160": "ĠauthoriseĠtheĠ",
  "5161": "ĠofĠaĠperson",
  "5162": "lawĠmadeĠbyĠParliamentĠ",
  "5163": "ĠanĠorder",
  "5164": "subordinateĠ",
  "5165": "administrator",
  "5166": "e.Ġ\n(",
  "5167": "Ġsim",
  "5168": "Ġsimil",
  "5169": "Ġsimilar",
  "5170": "eĠorĠ",
  "5171": "referenceĠto",
  "5172": "Ġthereto",
  "5173": "A)Ġ",
  "5174": "edĠand",
  "5175": "StateĠshallĠ",
  "5176": "management",
  "5177": "forĠtheĠpurposeĠof",
  "5178": "onĠtheĠground",
  "5179": "Ġapplic",
  "5180": "ĠforĠtheĠtimeĠbeingĠinĠforceĠ",
  "5181": "theĠsameĠ",
  "5182": ".ĠSubs.Ġ",
  "5183": "prejudic",
  "5184": "ĠisĠin",
  "5185": "ĠorĠa",
  "5186": "yst",
  "5187": "ystem",
  "5188": "ineĠ",
  "5189": "ĠnotĠ\n",
  "5190": "underĠthisĠ",
  "5191": "Ġ\"",
  "5192": ";Ġ\n(c)",
  "5193": ".]Ġ\n2[",
  "5194": "ĠplaceĠ",
  "5195": "treat",
  "5196": "practic",
  "5197": "vestedĠin",
  "5198": ",Ġthen",
  "5199": "haveĠbeenĠpublish",
  "5200": "ritingĠunderĠhisĠhand",
  "5201": "ritingĠunderĠhisĠhandĠaddress",
  "5202": "21-2-",
  "5203": "forĠelection",
  "5204": ",ĠandĠ\n(",
  "5205": ".Ġ\nĠ(2)Ġ",
  "5206": "reasonĠ",
  "5207": "reasonĠonly",
  "5208": "haveĠ\n",
  "5209": "ĠprovisionĠinĠthatĠbehalfĠisĠso",
  "5210": "Ġoffice,Ġ",
  "5211": "ChiefĠ\nJus",
  "5212": ",ĠthatĠisĠtoĠsay",
  "5213": ".B",
  "5214": "God",
  "5215": "edĠbyĠaĠmajor",
  "5216": "ĠnotĠlessĠthan",
  "5217": "aus",
  "5218": "eath",
  "5219": "possibleĠ",
  "5220": "ĠĠinĠ",
  "5221": "egi",
  "5222": "egianceĠ",
  "5223": ",ĠasĠtheĠ\n",
  "5224": "SubjectĠtoĠtheĠprovisionsĠofĠthisĠConstitution",
  "5225": "Forty-fourthĠAmendment)ĠAct,Ġ1978,Ġs.Ġ",
  "5226": "requir",
  "5227": "ParliamentĠ\n",
  "5228": "eĠinĠtheĠ",
  "5229": "ThirdĠSchedule",
  "5230": "expirationĠofĠthat",
  "5231": "ĠtoĠ\nbeĠ",
  "5232": "validity",
  "5233": "eeĠ",
  "5234": "Extra",
  "5235": "Extraordin",
  "5236": "Extraordinary,Ġ",
  "5237": ".ĠCl.Ġ(",
  "5238": "Ġ\ntoĠtheĠ",
  "5239": "ĠshallĠconsist",
  "5240": "nominat",
  "5241": "know",
  "5242": "8ĠofĠ198",
  "5243": "div",
  "5244": "sĠ(w.e.f.Ġ",
  "5245": "teenthĠAmendment)ĠAct,Ġ1963",
  "5246": "messageĠ",
  "5247": "generalĠ",
  "5248": "time,Ġ",
  "5249": "rulesĠofĠ",
  "5250": "Ġ.—(1)Ġ",
  "5251": ".Ġ\n(3)ĠIf",
  "5252": "isĠsatisfied",
  "5253": ",ĠGazett",
  "5254": "ĠorĠtheĠ\n",
  "5255": "isĠnotĠ",
  "5256": "inĠtheĠnotification",
  "5257": "withdrawal",
  "5258": "expenditureĠchargedĠ",
  "5259": "ira",
  "5260": "sĠasĠheĠmayĠ",
  "5261": "followingĠ",
  "5262": "sĠpay",
  "5263": "submittedĠ",
  "5264": "ProvinceĠ",
  "5265": "demandĠ",
  "5266": "Ġ\nrelationĠto",
  "5267": "ĠtoĠaĠ",
  "5268": "forĠ\ntheĠ",
  "5269": "ĠperiodĠofĠ",
  "5270": "promulg",
  "5271": "toĠoperateĠ",
  "5272": "SupremeĠCourtĠAdvocates",
  "5273": "on-RecordĠAssoci",
  "5274": "datedĠ16-10-",
  "5275": "leav",
  "5276": "ChiefĠJusticeĠ",
  "5277": "approval",
  "5278": "ĠaĠcivil",
  "5279": "onĠreceip",
  "5280": "byĠĠ",
  "5281": "likeĠ",
  "5282": "ĠasĠtheĠ\n",
  "5283": "ĠtoĠtheĠGovernor",
  "5284": ":ĠĠ\nP",
  "5285": "eitherĠHouseĠofĠtheĠ",
  "5286": "everyĠStateĠ",
  "5287": "2-6-2014",
  "5288": "WestĠBengal",
  "5289": "ĠaĠStateĠhaving",
  "5290": ",ĠforĠtheĠ",
  "5291": "Ġspecif",
  "5292": "ConsolidatedĠFundĠofĠtheĠState",
  "5293": "sĠasĠ",
  "5294": "25-",
  "5295": "ust,Ġ",
  "5296": "whom",
  "5297": ",ĠasĠtheĠcaseĠmayĠbe,ĠtheĠ",
  "5298": "UnionĠTerritories",
  "5299": "adra",
  "5300": "aveli",
  "5301": "edĠunderĠarticleĠ",
  "5302": "villag",
  "5303": "ĠPanchayat",
  "5304": "ScheduledĠTribesĠinĠtheĠ",
  "5305": "Administrator",
  "5306": "Vice-Chairperson",
  "5307": "o-operativeĠsocietyĠ",
  "5308": "enumeratedĠinĠtheĠ",
  "5309": "-StateĠtradeĠor",
  "5310": "Ġ\nProclamation",
  "5311": "OneĠHundredĠandĠFirstĠAmendment)ĠAct,Ġ2016,Ġs.Ġ",
  "5312": "taxesĠon",
  "5313": "usedĠfor",
  "5314": "esĠorĠ",
  "5315": "ĠaĠtax",
  "5316": "byĠway",
  "5317": "Ġproduc",
  "5318": "ĠcommencementĠ",
  "5319": "Ġ18",
  "5320": "exchang",
  "5321": "RegionalĠ\n",
  "5322": "Res",
  "5323": "May,Ġ",
  "5324": "subjectĠtoĠsuchĠexceptions",
  "5325": ").ĠTHEĠCONSTITUTIONĠOFĠĠINDIAĠ\n(PartĠXXI.Ġ—Temporary,ĠTransitionalĠandĠSpecialĠProvisions)Ġ",
  "5326": "Amendment)Ġ\n",
  "5327": "yder",
  "5328": "yderab",
  "5329": "Mizo",
  "5330": "TerritoriesĠ",
  "5331": "ActĠ\n",
  "5332": ").ĠĠTHEĠCONSTITUTIONĠOFĠĠINDIAĠ\n(",
  "5333": "RajasthanĠ",
  "5334": "Haryana",
  "5335": "\nparagraph",
  "5336": "21-1-1972)",
  "5337": "ĠhasĠbeenĠamendedĠinĠitsĠapplicationĠtoĠtheĠStateĠofĠAssam",
  "5338": "AssamĠReorganisationĠ(Meghalaya)ĠAct,Ġ1969Ġ(55ĠofĠ1969),Ġs.Ġ74",
  "5339": "SixthĠScheduleĠtoĠtheĠConstitutionĠ(",
  "5340": "rig",
  "5341": "DistrictĠCouncilĠfor",
  "5342": "Cod",
  "5343": "LandĠReformsĠAct,Ġ",
  "5344": "onĠAgriculturalĠ",
  "5345": "ĠofĠ\nS",
  "5346": "GujaratĠActĠ",
  "5347": "OrissaĠActĠ",
  "5348": "TenancyĠ(",
  "5349": "ĠpoliticalĠparty",
  "5350": "SĠtoĠ",
  "5351": "Ġ2Ġ3",
  "5352": "Ġ2Ġ3Ġ4Ġ5",
  "5353": "italkuch",
  "5354": "italkuchi",
  "5355": "ekliganjĠPatgram",
  "5356": "elow",
  "5357": "ĠII",
  "5358": "ĠV",
  "5359": "withĠ",
  "5360": ".Ġ\nĠ",
  "5361": "TOR",
  "5362": "al,Ġin",
  "5363": ".ĠRightsĠofĠ",
  "5364": "yĠac",
  "5365": ".ĠContinu",
  "5366": "Ġregul",
  "5367": "religion,Ġ",
  "5368": "religion,Ġra",
  "5369": "abil",
  "5370": "freedom",
  "5371": "1A",
  "5372": "ĠinĠcertainĠcases",
  "5373": "itation",
  "5374": "children",
  "5375": "prof",
  "5376": "tend",
  "5377": "minor",
  "5378": "estat",
  "5379": "es,Ġetc",
  "5380": "B.Ġ",
  "5381": "rightsĠconferredĠbyĠthisĠ",
  "5382": "alĠvalid",
  "5383": "alĠvalidityĠofĠ",
  "5384": "ĠanyĠarea",
  "5385": "ĠtoĠgiveĠ",
  "5386": "romotionĠofĠ",
  "5387": "justiceĠ",
  "5388": "lief",
  "5389": "tici",
  "5390": "ticip",
  "5391": "dustries",
  "5392": "odĠ",
  "5393": "standard",
  "5394": "ceĠandĠ",
  "5395": "ĠofĠ\nStates",
  "5396": "e,Ġor",
  "5397": "uteĠ",
  "5398": "Attorney-",
  "5399": "positionĠofĠtheĠ",
  "5400": "5.ĠS",
  "5401": "Ġof,ĠandĠ",
  "5402": "resolutionĠforĠ",
  "5403": "resolutionĠforĠhis",
  "5404": "movalĠfromĠofficeĠisĠunderĠconsideration",
  "5405": "munities",
  "5406": "ĠandĠofĠtheĠ\n",
  "5407": "alĠorĠ",
  "5408": "financial",
  "5409": "Languag",
  "5410": "GIS",
  "5411": "GISLA",
  "5412": "ĠChiefĠJus",
  "5413": "Jurisdiction",
  "5414": ".ĠTrans",
  "5415": "ate-",
  "5416": "LegislativeĠAssembli",
  "5417": "usines",
  "5418": "ĠIN",
  "5419": "Judge",
  "5420": ".ĠĠ\n2",
  "5421": "Ġwr",
  "5422": "deliver",
  "5423": "AN",
  "5424": "imposeĠ",
  "5425": "view",
  "5426": "WE",
  "5427": "addition",
  "5428": "ĠaĠmatter",
  "5429": "consent",
  "5430": "sĠtoĠ\n",
  "5431": ".ĠPublic",
  "5432": ",ĠC",
  "5433": "collectedĠbyĠtheĠ",
  "5434": "Ġassign",
  "5435": "distribut",
  "5436": "mayĠbeĠ\n",
  "5437": "dutyĠ",
  "5438": "taxation",
  "5439": ".ĠTaxesĠon",
  "5440": "ustody",
  "5441": "sĠreceiv",
  "5442": "eĠorĠpurchas",
  "5443": "taxesĠ",
  "5444": "row",
  "5445": "BLI",
  "5446": "vestĠ",
  "5447": "uit",
  "5448": "ĠtoĠ30",
  "5449": "miss",
  "5450": "alĠprovisions",
  "5451": "PublicĠServiceĠ\nCommission",
  "5452": "PublicĠServiceĠ",
  "5453": "PublicĠServiceĠComm",
  "5454": "PublicĠServiceĠCommissions",
  "5455": "ĠAngl",
  "5456": "Ġinvestig",
  "5457": "NGUAGE",
  "5458": "another",
  "5459": "Ġpri",
  "5460": "aĠProclamationĠofĠEmergencyĠ",
  "5461": "ĠissuedĠunder",
  "5462": "CEL",
  "5463": "CELLA",
  "5464": "CELLAN",
  "5465": "CELLANE",
  "5466": "CELLANEOU",
  "5467": "CELLANEOUS",
  "5468": "muner",
  "5469": "ConcurrentĠ",
  "5470": "sĠwithĠrespectĠtoĠtheĠ",
  "5471": "reventiveĠdetention",
  "5472": "isĠM",
  "5473": "isĠMaj",
  "5474": "isĠMajes",
  "5475": "romot",
  "5476": "uringĠtheĠ",
  "5477": "November,Ġ",
  "5478": ").Ġ\n2.ĠSubs.ĠbyĠs.Ġ",
  "5479": "26-",
  "5480": "uni",
  "5481": "alĠandĠconsequenti",
  "5482": "ĠofĠtheĠFirstĠScheduleĠ",
  "5483": ";ĠorĠ\n(c)Ġ",
  "5484": "NotwithstandingĠanythingĠinĠarticleĠ",
  "5485": "presentativ",
  "5486": "citizen",
  "5487": "anyĠlaw",
  "5488": "vention",
  "5489": "ĠotherĠcompet",
  "5490": "1-1971",
  "5491": "clauseĠ(1)ĠofĠarticleĠ",
  "5492": "Ġcent",
  "5493": "Amendment)ĠAct,Ġ200",
  "5494": ",ĠorĠanyĠ",
  "5495": "ĠorĠotherĠauthorityĠ",
  "5496": "ĠtheyĠareĠ",
  "5497": "beingĠ",
  "5498": "fifthĠAmendment)ĠAct,Ġ",
  "5499": "shallĠaffectĠtheĠ",
  "5500": "”ĠshallĠbeĠ",
  "5501": "ĠmoveĠ",
  "5502": "roughoutĠtheĠ",
  "5503": "Ġreason",
  "5504": "overeigntyĠandĠintegrityĠofĠIndia",
  "5505": "sĠwith",
  "5506": "temp",
  "5507": "relatesĠto",
  "5508": "techn",
  "5509": "qualificationsĠ",
  "5510": "edĠorĠ\n",
  "5511": "ĠorĠotherwis",
  "5512": "tedĠto",
  "5513": "bey",
  "5514": "lien",
  "5515": "visoryĠ",
  "5516": "expirationĠofĠtheĠsaidĠperiod",
  "5517": "ĠthereĠis",
  "5518": "ientĠ",
  "5519": ":Ġ\n",
  "5520": "recommendationsĠofĠtheĠ",
  "5521": "ĠtheĠcaseĠofĠtheĠ",
  "5522": "ĠorĠan",
  "5523": "forĠ\n",
  "5524": "mak",
  "5525": "7)Ġ",
  "5526": "partĠin",
  "5527": ",Ġno",
  "5528": "e)ĠtheĠ",
  "5529": "ĠofĠanyĠsuch",
  "5530": "ĠatĠaĠ",
  "5531": "7,ĠforĠ\"",
  "5532": "ĠofĠ1968",
  "5533": ",ĠandĠ\n",
  "5534": "NotwithstandingĠanythingĠcontainedĠin",
  "5535": "otherwiseĠ",
  "5536": "maintenanceĠof",
  "5537": "tiethĠAmendment)ĠAct,Ġ",
  "5538": "Ġ\n(a)Ġ",
  "5539": "InĠthisĠarticle,ĠtheĠ",
  "5540": "inĠarticleĠ",
  "5541": ",Ġshall",
  "5542": "facilities",
  "5543": ",Ġ\nandĠ",
  "5544": ",ĠandĠin",
  "5545": "Ġ\n(w.e.f.Ġ3-1-1977",
  "5546": "functioning",
  "5547": "lyĠ\n",
  "5548": "ĠofĠitsĠ",
  "5549": "andĠtheĠ\n",
  "5550": "Ġ\n(w.e.f.Ġ1-4-",
  "5551": "edĠbyĠ\nParliamentĠbyĠlaw",
  "5552": "ĠtoĠdo",
  "5553": "erĠ",
  "5554": "ĠaĠpar",
  "5555": "Delhi",
  "5556": "ousandĠ",
  "5557": "2006Ġ(",
  "5558": "edĠatĠtheĠ",
  "5559": "firstĠc",
  "5560": "construedĠasĠaĠ",
  "5561": "referenceĠtoĠtheĠ",
  "5562": "fiveĠyearsĠfromĠtheĠ",
  "5563": "entersĠuponĠhisĠoffice",
  "5564": "resignĠhis",
  "5565": "resignĠhisĠoffice",
  "5566": "thwith",
  "5567": "ĠtoĠthat",
  "5568": "ĠofficeĠofĠprofitĠ",
  "5569": "ĠprovisionĠinĠthatĠbehalfĠisĠsoĠmade",
  "5570": "specifiedĠinĠtheĠSecondĠSchedule",
  "5571": "fourteenĠday",
  "5572": "ĠofĠtheĠHouseĠ",
  "5573": "dateĠonĠwhich",
  "5574": "ĠsixĠmonth",
  "5575": "byĠreason",
  "5576": "1961",
  "5577": "ĠthisĠclauseĠ",
  "5578": ";Ġ\nĠ(",
  "5579": "ĠasĠpossibleĠ",
  "5580": "trueĠ",
  "5581": "ConstitutionĠofĠIndia",
  "5582": "ĠshallĠbeĠfinal",
  "5583": "furtherĠsubs.ĠbyĠtheĠConstitutionĠ(",
  "5584": ".ĠTheĠwordsĠ\"orĠRajpramukh\"ĠomittedĠbyĠtheĠConstitutionĠ(SeventhĠAmendment)ĠAct,Ġ\n1956,Ġs.Ġ29ĠandĠSch.Ġ(w.e.f.Ġ1-11-1956",
  "5585": "eĠ\ntheĠ",
  "5586": "adviceĠofĠtheĠ",
  "5587": "suchĠmember",
  "5588": "everĠisĠ",
  "5589": "pleas",
  "5590": "pleasur",
  "5591": "Amendment)ĠAct,Ġ2003",
  "5592": "ĠofĠsix",
  "5593": "ĠasĠtheĠPresidentĠmayĠ",
  "5594": "Ġinstru",
  "5595": "*ĠĠĠĠĠĠĠĠĠĠĠĠĠĠĠ",
  "5596": ")Ġand",
  "5597": ";ĠandĠ\n(c)Ġ",
  "5598": "accordanceĠwith",
  "5599": "applic",
  "5600": "fromĠsuchĠd",
  "5601": "ii)ĠtheĠ",
  "5602": "firstĠmeeting",
  "5603": "ĠanyĠcaseĠ",
  "5604": "sĠasĠmayĠbeĠ",
  "5605": "3***",
  "5606": ",ĠandĠanyĠ",
  "5607": "1\n",
  "5608": "ĠheĠis",
  "5609": "ĠforĠtheĠremoval",
  "5610": "inĠrelationĠtoĠ",
  "5611": "notwithstandingĠanythingĠin",
  "5612": "PeopleĠ",
  "5613": "pu",
  "5614": ",ĠExtraordinary,Ġ",
  "5615": "disqualifiedĠfor",
  "5616": "Ġ\n1[(",
  "5617": "oundĠ",
  "5618": "ĠanyĠquestionĠarises",
  "5619": "1978,Ġs.Ġ4",
  "5620": "inĠ\nrespec",
  "5621": "deb",
  "5622": ",ĠthereĠshallĠbeĠ",
  "5623": "Forty-secondĠAmendment)ĠAct,Ġ1976,Ġs.Ġ2",
  "5624": "onstituentĠ",
  "5625": "referredĠto",
  "5626": ",ĠitĠshallĠbeĠ",
  "5627": "propos",
  "5628": "sĠfromĠtheĠdat",
  "5629": "receip",
  "5630": "moneysĠoutĠofĠtheĠ",
  "5631": "accounts",
  "5632": "demand",
  "5633": "ĠbyĠanyĠ",
  "5634": "assent",
  "5635": "Ġsh",
  "5636": "reduc",
  "5637": "ationĠ\n",
  "5638": "rulesĠasĠto",
  "5639": "racketsĠandĠ",
  "5640": "shallĠceaseĠ",
  "5641": "ĠtheĠperiod",
  "5642": "124",
  "5643": "hasĠbeenĠstruckĠdown",
  "5644": "datedĠ16-10-2015",
  "5645": "otherĠthanĠtheĠ",
  "5646": "byĠaĠmajor",
  "5647": "ialĠAppointment",
  "5648": "leaveĠof",
  "5649": "leaveĠofĠabs",
  "5650": "Ġpension",
  "5651": "jurisdiction,Ġ",
  "5652": "Ġdul",
  "5653": "oneĠorĠmoreĠ",
  "5654": "Ġsubstanti",
  "5655": "questionĠofĠlaw",
  "5656": "8-1979",
  "5657": "Ġaforesaid",
  "5658": "app",
  "5659": "trial",
  "5660": "Ġrepor",
  "5661": "byĠruleĠ",
  "5662": "Ġproportion",
  "5663": "ĠofĠtheĠ\nStateĠ",
  "5664": "LegislatureĠofĠaĠ\n",
  "5665": "arh",
  "5666": ".ĠTHEĠCONSTITUTIONĠOFĠĠINDIAĠ\n(PartĠVI.—TheĠStates)Ġ",
  "5667": "*ĠĠĠĠĠĠĠĠĠĠĠĠĠĠĠĠĠĠĠĠĠĠĠĠĠĠ",
  "5668": "5\n",
  "5669": "1960Ġ(1",
  "5670": "1960Ġ(11",
  "5671": "1960Ġ(11ĠofĠ1960",
  "5672": "),Ġs.Ġ4Ġ(w.e.f.Ġ",
  "5673": "LegislativeĠCouncilĠofĠaĠStateĠ",
  "5674": "e,ĠbeĠ",
  "5675": "du",
  "5676": "underĠtheĠsaidĠ",
  "5677": "ho",
  "5678": "—Ġ\nĠ(",
  "5679": "34ĠofĠ1986",
  "5680": "toĠoperateĠatĠtheĠ",
  "5681": "pug",
  "5682": "pugn",
  "5683": "Aug",
  "5684": "August,Ġ",
  "5685": "timeĠbeingĠin",
  "5686": "relatingĠto",
  "5687": "ĠforĠsuch",
  "5688": ")ĠandĠsubsequent",
  "5689": "Forty-secondĠAmendment)ĠAct,Ġ1976,Ġs.Ġ4",
  "5690": "0Ġ",
  "5691": "wayĠ",
  "5692": "ĠserviceĠofĠtheĠ",
  "5693": "239",
  "5694": "2019Ġ(34",
  "5695": "2019Ġ(34ĠofĠ2019",
  "5696": "31-10-",
  "5697": "reportĠ",
  "5698": "carri",
  "5699": "Dadra",
  "5700": "NagarĠH",
  "5701": "NagarĠHaveli",
  "5702": "immediatelyĠbeforeĠtheĠcommencement",
  "5703": "”ĠmeansĠaĠ",
  "5704": "”ĠmeansĠa",
  "5705": "intermedi",
  "5706": "Ġspecified",
  "5707": "constituencies",
  "5708": "taxes,Ġ",
  "5709": "grants-",
  "5710": "grants-in",
  "5711": "grants-in-",
  "5712": "ElectionĠCommissioner",
  "5713": "byĠpublicĠnotification,Ġ",
  "5714": "ScheduledĠAreasĠ",
  "5715": "urban",
  "5716": ")Ġ\nĠ1",
  "5717": "co-operativeĠsociety",
  "5718": "boardĠ",
  "5719": "ĠsuchĠclass",
  "5720": "hand",
  "5721": "utonomous",
  "5722": "suppl",
  "5723": "establishment",
  "5724": "doneĠor",
  "5725": ").ĠĠTHEĠCONSTITUTIONĠOFĠĠINDIAĠ\n(PartĠX",
  "5726": "subjectĠtoĠtheĠprovisionsĠofĠ",
  "5727": ").Ġ\n26",
  "5728": ".]Ġ.—",
  "5729": "II.Ġ—Finance,ĠProperty,ĠContractsĠandĠSuits)Ġ\nĠ16",
  "5730": "sĠcon",
  "5731": "thĠAmendment)",
  "5732": "ĠtheĠprovisionsĠofĠthisĠConstitution",
  "5733": "ĠorĠĠ",
  "5734": "IndianĠStateĠ",
  "5735": "correspondingĠ",
  "5736": "ServicesĠunderĠtheĠ",
  "5737": "vok",
  "5738": "exam",
  "5739": "ĠagriculturalĠ",
  "5740": "alu",
  "5741": "ScheduledĠCastesĠ",
  "5742": "portsĠ",
  "5743": "Ġalong",
  "5744": "arm",
  "5745": "VIII.—",
  "5746": "VIII.—E",
  "5747": "VIII.—EĠM",
  "5748": "VIII.—EĠMERGENCYĠPROVISIONS",
  "5749": "VIII.—EĠMERGENCYĠPROVISIONSĠ)Ġ\n",
  "5750": "Hyderab",
  "5751": "appointedĠday",
  "5752": "dated",
  "5753": "ameĠTerritoriesĠ",
  "5754": "Ġsub-sectionĠ(Ġ1)",
  "5755": "BiharĠ",
  "5756": "Ġ\nFormĠof",
  "5757": "Ġuphold",
  "5758": "44ĠofĠ2003)",
  "5759": "AssamĠReorganisationĠ(Meghalaya)ĠAct,Ġ1969Ġ(55ĠofĠ1969),Ġs.Ġ74ĠandĠ\n",
  "5760": "AssamĠReorganisationĠ(Meghalaya)ĠAct,Ġ1969Ġ(55ĠofĠ1969),Ġs.Ġ74ĠandĠ\nFour",
  "5761": "thĠSch.Ġ(w.e.f.Ġ",
  "5762": "2-4-1970).",
  "5763": "ĠsuchĠdistrict",
  "5764": "waterway",
  "5765": "vehic",
  "5766": "sub-paragraphĠ(1)ĠofĠparagraph",
  "5767": "ancyĠandĠ",
  "5768": "LandĠRevenueĠ",
  "5769": "HoldingsĠ(",
  "5770": "OrissaĠLandĠReformsĠ(",
  "5771": "ĠofĠ1975).Ġ\n",
  "5772": "Amendment)ĠAct,Ġ1976Ġ(",
  "5773": "TamilĠNaduĠLandĠReformsĠ(FixationĠofĠCeilingĠonĠLand)Ġ\n",
  "5774": "TamilĠNaduĠLandĠReformsĠ(FixationĠofĠCeilingĠonĠLand)Ġ",
  "5775": "claves",
  "5776": "jointlyĠ",
  "5777": "BoundaryĠPillarĠNo",
  "5778": "och",
  "5779": "2.",
  "5780": "ĠBhurungamariĠDinhataĠ",
  "5781": "ĠMekliganjĠPatgram",
  "5782": ".ĠChhitĠLand",
  "5783": "habal",
  "5784": "2021",
  "5785": "below",
  "5786": "quired",
  "5787": "territoriesĠ\n",
  "5788": ".Ġ\nTheĠ",
  "5789": "ST",
  "5790": "ĠprovideĠforĠtheĠ",
  "5791": "akist",
  "5792": "Ġ\nbeĠ",
  "5793": "religion,Ġrace,Ġ",
  "5794": "irth",
  "5795": "particular",
  "5796": "struction",
  "5797": ".Ġ\n30",
  "5798": "ĠcertainĠ",
  "5799": "Ġactivities",
  "5800": "notĠtoĠbeĠ",
  "5801": "PartĠ\n",
  "5802": "peopl",
  "5803": ".ĠCertain",
  "5804": "polic",
  "5805": "iv)",
  "5806": "Ġwork",
  "5807": "Ġassist",
  "5808": "eaker",
  "5809": "Ġanim",
  "5810": "alĠh",
  "5811": "improvement",
  "5812": "vacancyĠinĠtheĠ",
  "5813": "officeĠofĠ",
  "5814": "ĠelectedĠ",
  "5815": "toĠfill",
  "5816": "abs",
  "5817": ",Ġetc.",
  "5818": "ĠCon",
  "5819": "PrimeĠMinister",
  "5820": ".ĠDur",
  "5821": ",ĠtheĠoffic",
  "5822": "dutiesĠofĠtheĠofficeĠof",
  "5823": "99",
  "5824": "membersĠandĠ",
  "5825": "committees",
  "5826": "JointĠ",
  "5827": "ĠBill",
  "5828": "ancialĠ",
  "5829": "withĠrespectĠtoĠ",
  "5830": "estimates",
  "5831": "exc",
  "5832": "exception",
  "5833": "ĠinquireĠinto",
  "5834": "LEGISLA",
  "5835": ".ĠEs",
  "5836": "jurisdictionĠofĠtheĠ",
  "5837": "leaveĠ",
  "5838": "cill",
  "5839": "OM",
  "5840": "ĠbyĠtheĠGovernor",
  "5841": "188",
  "5842": "OV",
  "5843": "OVER",
  "5844": "ĠtoĠp",
  "5845": "ĠCOUR",
  "5846": "conditions",
  "5847": "JudgesĠofĠ",
  "5848": "HighĠCourtĠto",
  "5849": "ĠactingĠ",
  "5850": "courts",
  "5851": "regulationsĠfor",
  "5852": ".ĠReserv",
  "5853": ",Ġauthority",
  "5854": "-I",
  "5855": "WardsĠ",
  "5856": "WardsĠCommitte",
  "5857": "planning",
  "5858": "alties",
  "5859": "ET",
  "5860": "betweenĠ",
  "5861": "anction",
  "5862": ".ĠOmitted",
  "5863": "disputes",
  "5864": "tingencyĠFund",
  "5865": "taxĠ",
  "5866": "leviedĠandĠ",
  "5867": "chargeĠ",
  "5868": "77",
  "5869": "alc",
  "5870": "sĠandĠ\n",
  "5871": ".ĠExemp",
  "5872": "saleĠorĠpurchas",
  "5873": "92",
  "5874": "orrow",
  "5875": "rights,Ġ",
  "5876": "liabilitiesĠand",
  "5877": "liabilitiesĠandĠobligation",
  "5878": "exclusiveĠ",
  "5879": "restrictionsĠ",
  "5880": "among",
  "5881": "ĠotherĠmatter",
  "5882": "ultĠ",
  "5883": "gression",
  "5884": "turb",
  "5885": "duringĠ",
  "5886": "tĠtoĠtheĠ",
  "5887": ",Ġagreement",
  "5888": "erod",
  "5889": "erodrom",
  "5890": "StateĠList",
  "5891": "ifĠtheyĠ",
  "5892": "StateĠofĠAndhraĠPradesh",
  "5893": "Tel",
  "5894": "StateĠof",
  "5895": "Karnataka",
  "5896": "72",
  "5897": "anceĠinĠfor",
  "5898": "FederalĠCourt",
  "5899": "[38",
  "5900": "dayĠofĠ",
  "5901": "rovisionsĠasĠtoĠtheĠ",
  "5902": "Meghalaya,Ġ",
  "5903": "ĠandĠMizoram",
  "5904": "UnionĠList",
  "5905": "al,Ġ",
  "5906": "ough",
  "5907": "dividual",
  "5908": "Ġcompris",
  "5909": ".Ġ].—",
  "5910": ";Ġ\n(d)",
  "5911": ".ĠĠIn",
  "5912": ".]Ġ\n3[",
  "5913": "ĠclausesĠ(",
  "5914": "\n(a)Ġ",
  "5915": "shallĠbeĠdeemedĠtoĠbeĠ",
  "5916": ".ĠTheĠwordsĠandĠlettersĠ\"specifiedĠinĠPartĠA",
  "5917": "territoryĠofĠIndiaĠ",
  "5918": "Ġif",
  "5919": ",ĠorĠ\n(",
  "5920": "ĠpersonĠshallĠbeĠ",
  "5921": "ch,Ġ",
  "5922": "hasĠ\n",
  "5923": "foreignĠState",
  "5924": "ĠotherwiseĠrequires",
  "5925": "ĠorĠab",
  "5926": "rid",
  "5927": "ridg",
  "5928": "ustom",
  "5929": "previous",
  "5930": "again",
  "5931": ").ĠĠTHEĠCONSTITUTIONĠOFĠĠINDIAĠ\n(PartĠ",
  "5932": "maintain",
  "5933": "Ġwomen",
  "5934": "dequ",
  "5935": "elyĠ\n",
  "5936": "Ġ3[",
  "5937": "suc",
  "5938": "SeventhĠAmendment)ĠAct,Ġ1956,Ġs.Ġ29ĠandĠSch.",
  "5939": "\"ĠĠ(w.e.f.Ġ",
  "5940": ".]Ġ\n1",
  "5941": "right",
  "5942": "Ġsub-clauseĠ(Ġa",
  "5943": "Ġmor",
  "5944": "es,Ġor",
  "5945": ",ĠinĠparticular",
  "5946": "ĠtheĠsaidĠ",
  "5947": "complet",
  "5948": "subjec",
  "5949": "lic",
  "5950": "moreĠthanĠ",
  "5951": "self",
  "5952": "beyond",
  "5953": "Ġ(1)ĠandĠ(",
  "5954": "consistingĠofĠ",
  "5955": "personsĠwho",
  "5956": "report",
  "5957": "aĠs",
  "5958": "Ġclaus",
  "5959": "ĠpursuanceĠof",
  "5960": "StateĠ(",
  "5961": "ĠasĠmayĠbe,Ġ",
  "5962": "ircum",
  "5963": "ircumst",
  "5964": "1978,Ġs.Ġ3",
  "5965": "serviceĠ",
  "5966": "tingu",
  "5967": "tinguish",
  "5968": "Ġoil",
  "5969": "edĠhis",
  "5970": "ant",
  "5971": "a)ĠtheĠ",
  "5972": "equiv",
  "5973": "equival",
  "5974": "judgment,ĠdecreeĠor",
  "5975": ",ĠorĠ\n",
  "5976": ",ĠforĠ“",
  "5977": "clauseĠ(3)",
  "5978": "ĠandĠw",
  "5979": ",ĠandĠ\ntheĠ",
  "5980": "chem",
  "5981": "apac",
  "5982": "effectiveĠ",
  "5983": "ĠorĠinĠanyĠother",
  "5984": "le",
  "5985": "43",
  "5986": "into",
  "5987": "cienti",
  "5988": "treaty",
  "5989": "render",
  "5990": "ĠĠ\nTheĠ",
  "5991": "ĠtheĠPresident",
  "5992": "electedĠbyĠtheĠ",
  "5993": "NationalĠCapitalĠ",
  "5994": "uduch",
  "5995": "uducher",
  "5996": "Ġ\ns.Ġ",
  "5997": "ĠreferredĠtoĠinĠ\n",
  "5998": "ĠofĠtheĠPresidentĠ",
  "5999": "termĠofĠ",
  "6000": "byĠwritingĠunderĠhisĠhandĠaddress",
  "6001": "mannerĠprovid",
  "6002": "fourthĠAmendment)ĠAct,Ġ2001",
  "6003": "21-2-2002",
  "6004": "ĠshallĠnotĠbeĠ\n",
  "6005": "byĠreasonĠonly",
  "6006": "entitledĠ",
  "6007": "termĠof",
  "6008": "enceĠofĠtheĠ",
  "6009": "ChiefĠ\nJustic",
  "6010": "Ġswear",
  "6011": "theĠoffic",
  "6012": "ĠofĠtheĠtotalĠnumber",
  "6013": "subjectĠtoĠtheĠprovisionsĠofĠarticleĠ",
  "6014": "whenĠtheĠ",
  "6015": "Ġfunctions",
  "6016": ",ĠasĠtheĠ\ncaseĠmayĠbe",
  "6017": "ĠwhereĠtheĠ",
  "6018": "PartĠBĠofĠtheĠFirstĠSchedule\"ĠomittedĠ",
  "6019": "AĠmember",
  "6020": "tillĠtheĠ",
  "6021": "ĠaccordingĠtoĠtheĠ",
  "6022": "etĠo",
  "6023": "etĠoutĠ",
  "6024": ".Ġ(1)",
  "6025": "mayĠfromĠtimeĠtoĠtimeĠbeĠ",
  "6026": "suchĠre",
  "6027": "notĠbeen",
  "6028": "twoĠHous",
  "6029": "ĠtheĠprovision",
  "6030": "knowl",
  "6031": ",Ġnamely:",
  "6032": "Ġ4ĠofĠtheĠ",
  "6033": "directĠelection",
  "6034": "ĠtheĠpurposesĠofĠ",
  "6035": "numberĠofĠseat",
  "6036": "itĠis",
  "6037": "applicableĠ",
  "6038": "30-5-",
  "6039": "30-5-1987",
  "6040": "dissolutionĠofĠtheĠ",
  "6041": "byĠorder,Ġ",
  "6042": "forĠitsĠ",
  "6043": "notĠexceed",
  "6044": "attend",
  "6045": "Ġspeak",
  "6046": "andĠfor",
  "6047": "chooseĠ",
  "6048": "ĠthereofĠand",
  "6049": ",Ġso",
  "6050": "ĠforĠtheĠpurposeĠof",
  "6051": "WhileĠ",
  "6052": "pointĠ",
  "6053": ",Ġis",
  "6054": ",ĠtoĠtheĠ",
  "6055": "Ġdissolved",
  "6056": "provisionsĠofĠ",
  "6057": ",ĠandĠtheĠcon",
  "6058": "ĠsoĠmadeĠ",
  "6059": "Sa",
  "6060": "jointĠsitting",
  "6061": "presentĠandĠvoting",
  "6062": "Ġmeeting",
  "6063": ",ĠasĠtheĠcaseĠmayĠbe,",
  "6064": "edĠbyĠaĠcompet",
  "6065": "ĠofĠthisĠarticle",
  "6066": "liableĠ",
  "6067": "Ġmay",
  "6068": "BillĠis",
  "6069": "followingĠmatter",
  "6070": "ationĠofĠmoneysĠoutĠofĠtheĠ",
  "6071": ";Ġ\n(e)ĠtheĠ",
  "6072": "ingĠofĠtheĠ",
  "6073": "moneyĠ",
  "6074": "ĠofĠanyĠtax",
  "6075": "sĠrequiredĠ",
  "6076": ";ĠandĠ\n(b)ĠtheĠ",
  "6077": "ableĠtoĠorĠin",
  "6078": "Ġ\nofĠIndia",
  "6079": "invol",
  "6080": "eitherĠ\n",
  "6081": "subjectĠtoĠsuch",
  "6082": "expirationĠofĠa",
  "6083": ",ĠinĠ",
  "6084": "ĠasĠaĠJudg",
  "6085": "Ninety-ninthĠAmendment)ĠAct,Ġ",
  "6086": "Ninety-ninthĠAmendment)ĠAct,Ġ2014",
  "6087": "ĠtheĠcaseĠofĠSupremeĠCourtĠAdvocates",
  "6088": "-on-RecordĠAssoci",
  "6089": "ĠanotherĠ",
  "6090": ",ĠAIRĠ2016ĠSCĠ117",
  "6091": "ĠomittedĠbyĠs.Ġ",
  "6092": "ĠofficeĠ\n",
  "6093": "shallĠbeĠdeemedĠto",
  "6094": "esĠin",
  "6095": "sĠinĠrelationĠto",
  "6096": "ĠotherĠthanĠthoseĠ",
  "6097": "saidĠ\n",
  "6098": "expedientĠ",
  "6099": ").Ġ\n2.ĠSubs.ĠbyĠtheĠ",
  "6100": "Ġ2***",
  "6101": "byĠĠs.Ġ",
  "6102": "osts",
  "6103": "inĠtheĠcours",
  "6104": ".ĠĠSubs.ĠbyĠtheĠ",
  "6105": "UnionĠP",
  "6106": "takenĠbyĠtheĠ",
  "6107": "Ġamending",
  "6108": "Ġbody",
  "6109": "GovernorĠofĠaĠStateĠ",
  "6110": "solemnlyĠaffirm",
  "6111": "withĠ\nrespectĠto",
  "6112": "LegislatureĠ\nofĠtheĠ",
  "6113": "Ġ(w.e.f.Ġ1-5-1960",
  "6114": "1973Ġ(",
  "6115": "ĠaĠState,Ġ",
  "6116": "municipal",
  "6117": "LegislativeĠ\nCouncil",
  "6118": "HouseĠorĠHouses",
  "6119": "FirstĠScheduleĠ",
  "6120": "s,ĠifĠany",
  "6121": "unlessĠtheĠ",
  "6122": "substituted",
  "6123": "ĠofĠ1970",
  "6124": "StateĠofĠMizoramĠAct,Ġ1986Ġ(",
  "6125": "StateĠofĠMizoramĠAct,Ġ1986Ġ(34ĠofĠ1986",
  "6126": "29ĠandĠSch.,Ġibid.Ġ(w.e.f.Ġ1-11-1956",
  "6127": "Ġomitted",
  "6128": ".ĠĠĠ",
  "6129": "ĠbyĠway",
  "6130": "Ġsup",
  "6131": ")ĠandĠsubsequentlyĠ",
  "6132": "Ġcour",
  "6133": "Ġelected",
  "6134": "PondicherryĠ",
  "6135": "filledĠbyĠ",
  "6136": "lawĠmadeĠbyĠtheĠ\n",
  "6137": "1-12-",
  "6138": "DadraĠandĠ",
  "6139": "DadraĠandĠNagarĠHaveli",
  "6140": "erger",
  "6141": "intermediateĠ",
  "6142": "ĠnameĠ",
  "6143": "economicĠdevelopment",
  "6144": "implement",
  "6145": "taxes,Ġduties",
  "6146": "Ġthereafter",
  "6147": "assignedĠto",
  "6148": "ditionsĠofĠserviceĠ",
  "6149": "specifyĠinĠtheĠnotification",
  "6150": "tĠunder",
  "6151": "126",
  "6152": "LegislatureĠorĠotherĠcompet",
  "6153": ",—Ġ\n(a)ĠtheĠ",
  "6154": "limitation",
  "6155": "A.Ġ—TheĠ",
  "6156": "A.Ġ—TheĠMunicipalities",
  "6157": "A.Ġ—TheĠMunicipalities)Ġ\nĠ1",
  "6158": "e.Ġ\n(2)ĠTheĠ",
  "6159": "o-operativeĠsociety",
  "6160": "urpl",
  "6161": "urplusĠ",
  "6162": "utonomousĠ\n",
  "6163": "Ġthing",
  "6164": "add",
  "6165": "givingĠofĠ",
  "6166": "ĠofĠaĠState,Ġ",
  "6167": "ĠcourtĠ",
  "6168": ").Ġ\n27",
  "6169": "sĠareĠ",
  "6170": "chan",
  "6171": "ĠofĠtheĠStateĠofĠ",
  "6172": "ufact",
  "6173": "IV.Ġ—",
  "6174": "IV.Ġ—ServicesĠunderĠtheĠ",
  "6175": "IV.Ġ—ServicesĠunderĠtheĠUnionĠandĠtheĠStates",
  "6176": "IV.Ġ—ServicesĠunderĠtheĠUnionĠandĠtheĠStates)ĠĠ",
  "6177": "evid",
  "6178": "ĠorĠanyĠ\n",
  "6179": "examin",
  "6180": "Ġ\nActĠ",
  "6181": "ĠaĠmemorand",
  "6182": "ĠaĠmemorandumĠ",
  "6183": "ĠaĠmemorandumĠexp",
  "6184": "ĠaĠmemorandumĠexpla",
  "6185": "ĠaĠmemorandumĠexplain",
  "6186": "unalĠ",
  "6187": "ScheduledĠTribesĠ",
  "6188": ",ĠVice-Chairperson",
  "6189": "EnglishĠlanguag",
  "6190": "territoryĠthereof",
  "6191": "ĠsuchĠProclamation",
  "6192": "VIII.—EĠMERGENCYĠPROVISIONSĠ)Ġ\nĠ2",
  "6193": "Ġshall,Ġunless",
  "6194": "Ġ)Ġ",
  "6195": "liquor",
  "6196": "ĠshallĠapplyĠto",
  "6197": "Ġproviso",
  "6198": "council",
  "6199": ".ĠParagraph",
  "6200": ".R",
  "6201": "Ġ\nProvin",
  "6202": "ReorganisationĠAct,Ġ1956",
  "6203": "excluding",
  "6204": "territoriesĠspecifiedĠinĠsectionĠ3",
  "6205": "territoriesĠwhichĠ",
  "6206": "FirstĠSchedule)Ġ\n",
  "6207": "FirstĠSchedule)Ġ\nĠ\n",
  "6208": "FirstĠSchedule)Ġ\nĠ\nĠĠĠĠĠĠĠĠ",
  "6209": "FirstĠSchedule)Ġ\nĠ\nĠĠĠĠĠĠĠĠĠ\nN",
  "6210": "FirstĠSchedule)Ġ\nĠ\nĠĠĠĠĠĠĠĠĠ\nNameĠTerritoriesĠ",
  "6211": "FirstĠSchedule)Ġ\nĠ\nĠĠĠĠĠĠĠĠĠ\nNameĠTerritoriesĠĠ\nĠ2",
  "6212": "ĠandĠUttarĠPradesh",
  "6213": "2000Ġ(",
  "6214": "Ġ10",
  "6215": "11-2000",
  "6216": "31-10-2019",
  "6217": "ĠandĠCon",
  "6218": "Ġsub-paragraphĠ(1)ĠofĠthisĠparagraph",
  "6219": ")Ġ\nandĠ",
  "6220": "ScheduleĠ\n",
  "6221": "]]Ġ\n",
  "6222": "2[4[",
  "6223": "ĠofĠthisĠSchedule",
  "6224": "oney-",
  "6225": "oney-l",
  "6226": "ĠofĠ1976",
  "6227": ".ĠĠParagraph",
  "6228": "Amendment)ĠAct,Ġ2003Ġ(",
  "6229": "44ĠofĠ2003),Ġs.Ġ2",
  "6230": "ĠHillsĠ",
  "6231": "DistrictĠ\n",
  "6232": "RegionalĠ\nCouncil",
  "6233": "i)ĠĠ",
  "6234": ";ĠĠ(xx",
  "6235": "ĠofĠthisĠ\nparagraph",
  "6236": "THEĠCONSTITUTIONĠOFĠĠINDIAĠ\n(SixthĠSchedule)ĠĠ30",
  "6237": "Gar",
  "6238": "ĠanyĠofĠtheĠmattersĠin",
  "6239": "TenancyĠandĠ",
  "6240": "AbolitionĠAct,Ġ",
  "6241": "esĠ(",
  "6242": "ĠCeilingĠonĠAgriculturalĠ",
  "6243": "Area",
  "6244": "MaharashtraĠAgriculturalĠLandsĠ(",
  "6245": "arc",
  "6246": "ept",
  "6247": "ĠTHEĠCONSTITUTIONĠOFĠĠINDIAĠ\n(AppendixĠI)ĠĠ\nĠ3",
  "6248": "/1-",
  "6249": "survey",
  "6250": "\n1Ġ2Ġ3Ġ4Ġ5",
  "6251": "FragmentĠ",
  "6252": "FragmentĠHaldibari",
  "6253": "FragmentĠHaldibariĠDebiganj",
  "6254": ".ĠChhitĠLandĠofĠ\n",
  "6255": "sĠon",
  "6256": "ĠallĠtheĠ",
  "6257": "ĠofĠIndiaĠandĠ",
  "6258": "PPE",
  "6259": "PPEND",
  "6260": ".ĠRe",
  "6261": "ĠĠĠ″ĠĠĠĠ",
  "6262": "Section",
  "6263": "ĠĠĠĠĠĠĠĠĠĠĠĠĠĠĠĠĠĠĠĠĠĠĠĠĠĠĠĠĠĠĠĠĠĠĠĠĠĠĠĠĠĠĠĠĠĠĠĠĠĠĠĠĠĠĠĠĠĠĠĠĠĠĠĠ",
  "6264": "Ġ\nPART",
  "6265": "establishmentĠofĠ",
  "6266": "Ġalteration",
  "6267": "upplemental,Ġin",
  "6268": "upplemental,Ġincident",
  "6269": "itizens",
  "6270": "ersonsĠ",
  "6271": "anceĠofĠtheĠ",
  "6272": "RightĠto",
  "6273": "hibitionĠofĠ",
  "6274": "ityĠin",
  "6275": "Ġagainst",
  "6276": "Ġarres",
  "6277": "forc",
  "6278": "enceĠandĠ",
  "6279": "Ġaffair",
  "6280": "Ġattend",
  "6281": "iou",
  "6282": "iousĠin",
  "6283": "ContentsĠ\nĠ\nĠĠĠARTICLESĠ(",
  "6284": "avingĠofĠ",
  "6285": "Val",
  "6286": "Valid",
  "6287": "ĠonĠ",
  "6288": "Ġ\nD",
  "6289": "CI",
  "6290": "41",
  "6291": "oodĠ",
  "6292": "eakerĠsection",
  "6293": "TIES",
  "6294": "ĠĠI",
  "6295": "Qual",
  "6296": "Qualification",
  "6297": "termĠofĠofficeĠof",
  "6298": "ancy",
  "6299": "nectedĠwith",
  "6300": ".ĠPowerĠofĠPresidentĠto",
  "6301": "usinessĠ",
  "6302": "ĠasĠrespectsĠtheĠ",
  "6303": ".ĠDurationĠofĠ",
  "6304": "endĠ",
  "6305": "respectsĠ",
  "6306": "VacationĠandĠ",
  "6307": "VacationĠandĠresignation",
  "6308": "VacationĠandĠresignationĠof,ĠandĠ",
  "6309": "VacationĠandĠresignationĠof,ĠandĠremov",
  "6310": "VacationĠandĠresignationĠof,ĠandĠremovalĠfrom",
  "6311": "VacationĠandĠresignationĠof,ĠandĠremovalĠfrom,ĠtheĠoffic",
  "6312": "ĠorĠotherĠpersonĠto",
  "6313": "ĠorĠotherĠpersonĠtoĠperform",
  "6314": "ĠorĠotherĠpersonĠtoĠperformĠtheĠ\n",
  "6315": "ĠorĠotherĠpersonĠtoĠperformĠtheĠ\ndutiesĠofĠtheĠofficeĠof",
  "6316": "ĠorĠotherĠpersonĠtoĠperformĠtheĠ\ndutiesĠofĠtheĠofficeĠof,ĠorĠto",
  "6317": "ĠorĠotherĠpersonĠtoĠperformĠtheĠ\ndutiesĠofĠtheĠofficeĠof,ĠorĠtoĠact",
  "6318": "ĠorĠotherĠpersonĠtoĠperformĠtheĠ\ndutiesĠofĠtheĠofficeĠof,ĠorĠtoĠactĠas,Ġ",
  "6319": "ĠnotĠtoĠpresid",
  "6320": "ĠnotĠtoĠpresideĠ",
  "6321": "ĠnotĠtoĠpresideĠwhileĠ",
  "6322": "ĠnotĠtoĠpresideĠwhileĠaĠ\n",
  "6323": "ĠnotĠtoĠpresideĠwhileĠaĠ\nresolutionĠforĠhis",
  "6324": "ĠnotĠtoĠpresideĠwhileĠaĠ\nresolutionĠforĠhisĠre",
  "6325": "SpeakerĠorĠtheĠ",
  "6326": "qualificationsĠofĠ",
  "6327": ".ĠDisqualificationsĠfor",
  "6328": ".ĠDisqualificationsĠforĠmembership",
  "6329": "altyĠ",
  "6330": "Ġsitting",
  "6331": "ĠorĠwhen",
  "6332": "ProcedureĠ",
  "6333": ".ĠProvisionsĠasĠto",
  "6334": "s”",
  "6335": "ĠPro",
  "6336": "LanguageĠtoĠbeĠ",
  "6337": "LanguageĠtoĠbeĠus",
  "6338": ".ĠRestrictionĠon",
  "6339": "HAPTERĠIV",
  "6340": ".ĠEstablish",
  "6341": "sĠCommission",
  "6342": ".ĠAppointmentĠof",
  "6343": ".Ġ\nĠ1",
  "6344": ".ĠEn",
  "6345": "cillaryĠ",
  "6346": "powersĠofĠtheĠ",
  "6347": "Ġorders",
  "6348": "ĠandĠservants",
  "6349": "ĠOFĠINDIA",
  "6350": ".Ġ\nĠ15",
  "6351": "Advocate-",
  "6352": ".ĠĠ\nĠ2",
  "6353": "plicationĠofĠ",
  "6354": "Ġprac",
  "6355": "226",
  "6356": "s,Ġetc",
  "6357": "magistr",
  "6358": ".ĠAdministr",
  "6359": "sĠof,ĠtheĠ",
  "6360": "ĠapplyĠto",
  "6361": "ĠtoĠinter",
  "6362": "ĠtoĠinterferenceĠ",
  "6363": "ĠtoĠinterferenceĠbyĠ",
  "6364": "PER",
  "6365": "ulti",
  "6366": "244",
  "6367": "TribalĠ",
  "6368": "Areas",
  "6369": "Ġtherefor",
  "6370": "istribution",
  "6371": "lawsĠmadeĠbyĠParliament",
  "6372": "Ġlegis",
  "6373": "Ġinterest",
  "6374": "Ġadop",
  "6375": "Ġrecommendation",
  "6376": "Ġarm",
  "6377": "entrus",
  "6378": "62",
  "6379": "Ġwaters",
  "6380": "ĠPARTĠX",
  "6381": "Ġcommer",
  "6382": "essions,Ġ",
  "6383": "essions,Ġtrad",
  "6384": "calling",
  "6385": "gre",
  "6386": "eĠofĠaĠStateĠ",
  "6387": "resourc",
  "6388": "vestĠinĠtheĠ",
  "6389": "trade,ĠcommerceĠ",
  "6390": "BLIC",
  "6391": "Ġceas",
  "6392": "cast",
  "6393": "HouseĠofĠtheĠPeopleĠandĠ",
  "6394": "ĠofĠad",
  "6395": "329",
  "6396": "CIAL",
  "6397": "ScheduledĠCastesĠandĠ",
  "6398": "ScheduledĠCastesĠandĠScheduledĠTribes",
  "6399": "administrationĠofĠ",
  "6400": "OF",
  "6401": "gri",
  "6402": "Ġprotec",
  "6403": "extern",
  "6404": ".ĠProvisionsĠasĠtoĠ",
  "6405": "IndianĠStates",
  "6406": "ParliamentĠtoĠmakeĠ",
  "6407": "Telang",
  "6408": "StateĠofĠArunachalĠPradesh",
  "6409": "utyĠ\n",
  "6410": "firmation",
  "6411": "faith",
  "6412": "1949",
  "6413": "ConstitutionĠ(Thirty-",
  "6414": "ĠorĠpar",
  "6415": "creas",
  "6416": "express",
  "6417": ",Ġ“",
  "6418": "ĠdoesĠnotĠ",
  "6419": "ĠconferredĠ",
  "6420": "sĠforĠtheĠ\n",
  "6421": "Ġnecessary",
  "6422": "ĠofĠarticleĠ368",
  "6423": "ĠĠĠĠĠĠĠĠ\n(w.e.f.Ġ",
  "6424": ").ĠĠĠ\n3",
  "6425": "arilyĠ",
  "6426": "ĠsuchĠcommencement",
  "6427": "Act,Ġ1935",
  "6428": "enacted",
  "6429": "b)(",
  "6430": "unlessĠheĠ",
  "6431": "shallĠapplyĠto",
  "6432": "ettlement",
  "6433": "mayĠbeĠmadeĠ",
  "6434": "acquisition",
  "6435": "InĠthisĠPart,Ġ",
  "6436": "unlessĠtheĠcontextĠotherwiseĠrequires",
  "6437": "LegislatureĠofĠ",
  "6438": "shall,ĠtoĠtheĠ",
  "6439": "ency,Ġ",
  "6440": ",Ġc",
  "6441": "edĠorĠmadeĠ",
  "6442": "condition",
  "6443": "entertain",
  "6444": "Ġsub-clauseĠ(Ġ",
  "6445": "ĠĠĠĠĠĠ\n(w.e.f.Ġ",
  "6446": "sĠofĠ\n",
  "6447": "Ġof,ĠanyĠ",
  "6448": "Ġadequ",
  "6449": "ScheduledĠCastesĠandĠtheĠ",
  "6450": "Ġaccep",
  "6451": "f)",
  "6452": "*ĠĠĠĠĠĠĠĠĠĠĠĠĠĠĠĠĠĠĠĠĠĠ",
  "6453": "cup",
  "6454": "ĠanyĠexistingĠlaw",
  "6455": "Ġ5[",
  "6456": "ĠtheĠprotection",
  "6457": "Amendment)ĠAct,Ġ1978",
  "6458": "-clauseĠ(",
  "6459": "\neffect",
  "6460": "),Ġ(",
  "6461": "—Ġ\n(i)",
  "6462": "technicalĠ",
  "6463": "tradeĠorĠbusiness",
  "6464": "orpor",
  "6465": "ness",
  "6466": "ĠallĠ",
  "6467": ",ĠasĠ\n",
  "6468": "2010",
  "6469": "ĠaĠperiodĠofĠ",
  "6470": "ĠprovidingĠfor",
  "6471": "substitut",
  "6472": "shall,ĠasĠsoon",
  "6473": ".Ġ\n(6)Ġ",
  "6474": "shallĠre",
  "6475": "ĠSub",
  "6476": "Amendment)ĠAct,Ġ\n",
  "6477": "re-",
  "6478": "sĠandĠb",
  "6479": "entitledĠtoĠ",
  "6480": "referenceĠtoĠ",
  "6481": "Ġaccordingly",
  "6482": "itsĠown",
  "6483": "ingĠanyĠ",
  "6484": "Ġreceiv",
  "6485": "amountĠ",
  "6486": "ecur",
  "6487": "ers,Ġ",
  "6488": "director",
  "6489": ").Ġ\n5.ĠSubs.ĠbyĠtheĠConstitutionĠ(",
  "6490": "StateĠto",
  "6491": "ras",
  "6492": "containedĠin",
  "6493": "down",
  "6494": ";]Ġ\n",
  "6495": "Ġpolic",
  "6496": "Forty-thirdĠ",
  "6497": "ate,Ġ",
  "6498": ",Ġs.Ġ6",
  "6499": "ĠtheĠforegoingĠprovisions",
  "6500": "Ġpunish",
  "6501": "immediatelyĠbeforeĠtheĠcommencementĠofĠthisĠ\nConstitution",
  "6502": "resources",
  "6503": "vocation",
  "6504": "Forty-fourthĠAmendment)ĠAct,Ġ\n",
  "6505": "ĠbyĠreason",
  "6506": "s.Ġ—TheĠ",
  "6507": "them",
  "6508": "apacity",
  "6509": "Forty-secondĠAmendment)ĠAct,Ġ1976,Ġs.Ġ",
  "6510": "agr",
  "6511": "catt",
  "6512": "declaredĠbyĠorĠunder",
  "6513": "ĠbeĠofĠ",
  "6514": "bothĠHousesĠofĠParliament",
  "6515": "electedĠmembersĠofĠtheĠ",
  "6516": "Explanation.—Ġ",
  "6517": "formit",
  "6518": "ĠatĠsuchĠ",
  "6519": "edĠinĠ\ntheĠ",
  "6520": "videĠ",
  "6521": "AlterationĠofĠName)ĠAct,Ġ2006Ġ(",
  "6522": "1-10-200",
  "6523": "secre",
  "6524": "ĠofĠwhichĠtheĠ",
  "6525": "figuresĠhaveĠbeenĠpublish",
  "6526": "2026",
  "6527": "mannerĠprovidedĠin",
  "6528": "SpeakerĠofĠtheĠ",
  "6529": "Eighty-fourthĠAmendment)ĠAct,Ġ2001",
  "6530": "qualifiedĠ",
  "6531": "ĠofficeĠofĠprofitĠunderĠtheĠGovernmentĠofĠIndia",
  "6532": "ĠofĠaĠHouseĠofĠtheĠ",
  "6533": ",Ġ\nall",
  "6534": "everyĠ\n",
  "6535": "andĠsubs",
  "6536": "andĠsubscribeĠ",
  "6537": "JudgeĠofĠtheĠSupremeĠCourt",
  "6538": "aila",
  "6539": "thĠ\nAmendment)ĠAct,Ġ1956,Ġs.Ġ29ĠandĠSch.Ġ(w.e.f.Ġ1-11-1956",
  "6540": "doĠswear",
  "6541": "eitherĠHouseĠofĠParliament",
  "6542": "ĠnoticeĠ",
  "6543": "ĠofĠtheir",
  "6544": "totalĠmembership",
  "6545": "referredĠ",
  "6546": "caus",
  "6547": "comple",
  "6548": "Ġdeath",
  "6549": "ĠtheĠperiodĠ",
  "6550": "President,Ġor",
  "6551": ".Ġ\n(2)ĠIf",
  "6552": "\nofĠtheĠ",
  "6553": "ParliamentĠhasĠ",
  "6554": "byĠ\ntheĠConstitutionĠ(SeventhĠAmendment)ĠAct,Ġ1956,Ġs.Ġ29ĠandĠSch.Ġ(w.e.f.Ġ1-11-1956",
  "6555": "gener",
  "6556": "liticalĠ\n",
  "6557": "shallĠalsoĠbeĠ",
  "6558": "fromĠtheĠdat",
  "6559": "everĠisĠearlier",
  "6560": "duringĠtheĠpleasur",
  "6561": "ĠaccordingĠtoĠtheĠform",
  "6562": "ĠaĠ\nmember",
  "6563": "6)ĠTheĠ",
  "6564": ",ĠandĠto",
  "6565": "redĠor",
  "6566": "determine",
  "6567": "edĠbyĠtheĠPresident",
  "6568": "7,Ġ",
  "6569": "ĠĠĠĠĠĠĠĠĠĠ\n",
  "6570": "respectively",
  "6571": "ĠspecialĠ",
  "6572": "ĠandĠsoci",
  "6573": "sixthĠAmendment)ĠAct,Ġ1975",
  "6574": ".Ġ\n(5)ĠTheĠ",
  "6575": "rati",
  "6576": ",ĠsoĠfar",
  "6577": ",ĠtheĠsameĠ",
  "6578": "Ġconstitu",
  "6579": ").Ġ\n3.ĠSubs.ĠbyĠs.Ġ",
  "6580": "ĠReorganisationĠAct,Ġ1987",
  "6581": "Ġ(18ĠofĠ198",
  "6582": "Amendment)ĠAct,Ġ1973",
  "6583": "House",
  "6584": "ĠtheĠPresidentĠmay,Ġ",
  "6585": "electionĠtoĠtheĠ",
  "6586": "—Ġ\n(i)ĠtheĠ",
  "6587": "83",
  "6588": "ĠshallĠre",
  "6589": "sooner",
  "6590": "dateĠappointedĠ",
  "6591": "ĠaĠperiodĠofĠsixĠmonth",
  "6592": "ceasedĠto",
  "6593": "ĠaĠseat",
  "6594": "behalf",
  "6595": "ĠbyĠorĠunder",
  "6596": "thinksĠfit",
  "6597": "eachĠyear",
  "6598": "rulesĠregulating",
  "6599": "partĠinĠtheĠproceeding",
  "6600": "Ġoften",
  "6601": "forĠtheĠpurpose",
  "6602": ".ĠĠTheĠ",
  "6603": "resolutionĠforĠtheĠremoval",
  "6604": "ĠasĠtheyĠapplyĠ",
  "6605": "\n(2)ĠTheĠ",
  "6606": "HouseĠandĠ",
  "6607": "ĠproceedingsĠ",
  "6608": "ThereĠshallĠbeĠpaidĠtoĠtheĠ",
  "6609": ":Ġ\nProvidedĠthatĠnothingĠinĠthisĠclauseĠ",
  "6610": "shallĠbeĠconstruedĠasĠ",
  "6611": "recruitment",
  "6612": "Ġappointed,Ġ",
  "6613": "SaveĠ",
  "6614": "ĠpersonĠacting",
  "6615": "shallĠhaveĠpowerĠto",
  "6616": "eĠa",
  "6617": "mee",
  "6618": "ĠbecomeĠ",
  "6619": "Ġ\n(4)Ġ",
  "6620": "Ġcompu",
  "6621": "moreĠthan",
  "6622": "ifĠheĠisĠso",
  "6623": "ifĠheĠisĠsoĠdisqualifi",
  "6624": "ĠasĠtoĠwhether",
  "6625": "requirements",
  "6626": "ĠandĠtoĠtheĠ",
  "6627": "pa",
  "6628": "inĠ\ntheĠ",
  "6629": "ConstituentĠ",
  "6630": ".Ġ\n(2)ĠSubjectĠtoĠtheĠprovisions",
  "6631": "deemedĠtoĠhaveĠbeen",
  "6632": "lapseĠ",
  "6633": "ĠtheĠpass",
  "6634": "Ġreturn",
  "6635": "toĠ\ntheĠ",
  "6636": "ingĠwith",
  "6637": "withdrawalĠofĠ",
  "6638": ";Ġ\n(d)ĠtheĠ",
  "6639": "expenditure",
  "6640": "sign",
  "6641": "ĠthatĠyear",
  "6642": "HighĠ\nCourtĠ",
  "6643": ";Ġ\n(f)",
  "6644": "courtĠor",
  "6645": "ConsolidatedĠ\n",
  "6646": "ConsolidatedĠ\nFund",
  "6647": "disc",
  "6648": ".Ġ\n(3)ĠNo",
  "6649": "Ġdem",
  "6650": "withdrawn",
  "6651": "forĠtheĠpurposes",
  "6652": "ĠandĠtheĠlaw",
  "6653": "ĠtheĠprovisionsĠofĠarticleĠ",
  "6654": "ĠtheĠconductĠofĠ",
  "6655": "soĠfarĠas",
  "6656": "underĠclauseĠ(1)ĠofĠarticleĠ",
  "6657": "ĠyearsĠfromĠtheĠ",
  "6658": "wordsĠ“",
  "6659": "here",
  "6660": "appointedĠbyĠtheĠPresidentĠ",
  "6661": "*]Ġ\n",
  "6662": "”Ġ",
  "6663": "itsĠjudgmentĠ",
  "6664": "datedĠ16-10-2015,ĠAIRĠ2016ĠSCĠ117",
  "6665": "Ġadvoc",
  "6666": "notĠlessĠthanĠtwo-thirdsĠofĠtheĠ",
  "6667": "NationalĠJudicialĠAppointment",
  "6668": "oneĠofĠtheĠ",
  "6669": "nominatedĠ",
  "6670": "fromĠ\n",
  "6671": "rightsĠinĠrespectĠofĠ",
  "6672": ",Ġ\nof",
  "6673": "withĠtheĠprev",
  "6674": "SupremeĠ\nCourtĠ",
  "6675": "interpretation",
  "6676": "Ġdecid",
  "6677": "party",
  "6678": "ingĠor",
  "6679": "rulesĠmadeĠ",
  "6680": "pending",
  "6681": "application",
  "6682": "sĠwithin",
  "6683": "ĠasĠmayĠbeĠprescrib",
  "6684": "whichĠis",
  "6685": ".Ġ\n4[",
  "6686": "ĠorderĠmadeĠbyĠtheĠ",
  "6687": "ĠtoĠanyĠ",
  "6688": "forĠanyĠ",
  "6689": "Amendment)ĠAct,Ġ1977",
  "6690": "holdĠ",
  "6691": "ĠHouseĠofĠParliament",
  "6692": "GovernorĠofĠ",
  "6693": "—Ġ\n“I",
  "6694": "extendĠtoĠtheĠ",
  "6695": "LegislatureĠofĠaĠ\nStateĠ",
  "6696": "exceptĠin",
  "6697": "ĠdoneĠ",
  "6698": "byĠtheĠGovernor",
  "6699": "THEĠCONSTITUTIONĠOFĠĠINDIAĠ\n(PartĠVI.—TheĠStates)Ġ",
  "6700": "lessĠthanĠ",
  "6701": "7-1-2004",
  "6702": "Ġ\n______________________________________________Ġ\n1.ĠIns.ĠbyĠtheĠConstitutionĠ(",
  "6703": "Ġ4[",
  "6704": "ĠĠĠĠĠĠĠĠĠĠĠ",
  "6705": "ins",
  "6706": "ĠReorganisationĠAct,Ġ2014",
  "6707": "anĠamendment",
  "6708": "189",
  "6709": "4\n",
  "6710": "Forty-secondĠAmendment)ĠAct,Ġ1976,Ġs.Ġ3",
  "6711": ",ĠotherĠthan",
  "6712": "ĠMembers",
  "6713": "LegislatureĠofĠaĠStateĠ\n",
  "6714": "corresponding",
  "6715": "e;",
  "6716": "mattersĠspecifiedĠin",
  "6717": "FundĠ",
  "6718": "Ġ\nconsultationĠwithĠtheĠ",
  "6719": "sĠfromĠtheĠ\n",
  "6720": ",ĠtheĠwordsĠ“",
  "6721": "\"Ġ(w.e.f.Ġ21-1-1972",
  "6722": "ActĠofĠParliamentĠor",
  "6723": "HighĠCourtĠfor",
  "6724": "etition",
  "6725": "illeg",
  "6726": "ĠsuchĠorder",
  "6727": "ĠaccountsĠ",
  "6728": ":Ġ\nProvidedĠthatĠif",
  "6729": ")]",
  "6730": "fromĠsuchĠdateĠ",
  "6731": "ĠotherwiseĠ\n",
  "6732": "Ġcre",
  "6733": "necessaryĠorĠ",
  "6734": "bod",
  "6735": "OmittedĠbyĠtheĠConstitutionĠ(Seven",
  "6736": "register",
  "6737": "intermediateĠlevel",
  "6738": "districtĠlevel",
  "6739": "PanchayatsĠatĠtheĠ",
  "6740": "1993",
  "6741": "populationĠofĠtheĠ",
  "6742": "ĠaĠPanchayat",
  "6743": "districtĠ\n",
  "6744": "electionsĠtoĠtheĠ",
  "6745": "repar",
  "6746": ",Ġtoll",
  "6747": ",ĠtollsĠandĠ",
  "6748": "ĠtheĠprincipl",
  "6749": "ElectionĠ\nCommission",
  "6750": "areas",
  "6751": "tribalĠareasĠ",
  "6752": "ĠCommitteeĠ",
  "6753": "ĠmeansĠ",
  "6754": "entralĠ\n",
  "6755": "fiel",
  "6756": "loan",
  "6757": "0\n",
  "6758": "educationĠandĠ",
  "6759": "training",
  "6760": "“theĠ",
  "6761": "Ġwhol",
  "6762": "Forty-ninthĠAmendment)ĠAct,Ġ",
  "6763": "Forty-ninthĠAmendment)ĠAct,Ġ1984",
  "6764": "eĠofĠinter-StateĠtradeĠor",
  "6765": "ĠpreviousĠ",
  "6766": "NotwithstandingĠanythingĠinĠthisĠConstitution,ĠtheĠ",
  "6767": "tamp",
  "6768": "edĠbyĠtheĠGovernmentĠofĠIndia",
  "6769": "ĠĠĠĠĠ\n(w.e.f.Ġ",
  "6770": "paid",
  "6771": "Cro",
  "6772": "Crown",
  "6773": "CrownĠinĠIndia",
  "6774": "ĠthousandĠ",
  "6775": "KeralaĠ",
  "6776": "pred",
  "6777": "predec",
  "6778": "predecess",
  "6779": "HisĠMajes",
  "6780": "tract",
  "6781": "contrac",
  "6782": "ĠservicesĠandĠ",
  "6783": "claim",
  "6784": "ĠbyĠwayĠofĠ",
  "6785": "non-ac",
  "6786": "non-accept",
  "6787": "2[orĠUnionĠterritory",
  "6788": ").ĠTHEĠCONSTITUTIONĠOFĠĠINDIAĠ\n(PartĠXVI.Ġ—SpecialĠProvisionsĠRelatingĠtoĠCertainĠClasses)Ġ",
  "6789": "StateĠofĠTripura",
  "6790": "working",
  "6791": "rightsĠandĠ",
  "6792": "protection",
  "6793": "recognis",
  "6794": "deemedĠtoĠbeĠtheĠ",
  "6795": "constitutedĠunder",
  "6796": "securityĠofĠIndia",
  "6797": "territoryĠthereofĠis",
  "6798": "territoryĠthereofĠisĠth",
  "6799": "territoryĠthereofĠisĠthreat",
  "6800": "territoryĠthereofĠisĠthreaten",
  "6801": "ĠaĠProclamation",
  "6802": "ProclamationĠ",
  "6803": "ĠasĠmayĠbeĠspecifiedĠinĠtheĠorder",
  "6804": "thĠdayĠofĠMay,Ġ",
  "6805": "ConstitutionĠĠ(Forty-secondĠAmendment)ĠĠAct,Ġ1976,Ġs.Ġ5",
  "6806": "IX.—",
  "6807": "IX.—M",
  "6808": "IX.—MĠI",
  "6809": "IX.—MĠIS",
  "6810": "IX.—MĠISCELLANEOUS",
  "6811": "IX.—MĠISCELLANEOUSĠ)Ġ",
  "6812": "gricultural",
  "6813": "ott",
  "6814": "otton",
  "6815": "responsibilityĠ",
  "6816": "directĠthatĠtheĠ",
  "6817": "Ġ(10",
  "6818": "olog",
  "6819": "Act,Ġ195",
  "6820": "ĠofĠtheĠSecondĠ",
  "6821": "),Ġs.Ġ7",
  "6822": "4ĠtoĠ",
  "6823": ",00",
  "6824": ",000Ġ",
  "6825": ",000Ġrupees",
  "6826": "salaryĠ",
  "6827": "ĠupholdĠtheĠs",
  "6828": "andidateĠ",
  "6829": "ĠMa",
  "6830": "ScheduledĠArea",
  "6831": "forthwith",
  "6832": ")Ġ\nandĠEighthĠSch.",
  "6833": "ĠasĠtoĠinser",
  "6834": "BodolandĠTerritorial",
  "6835": "NorthĠC",
  "6836": "NorthĠCa",
  "6837": "NorthĠCachar",
  "6838": "Karb",
  "6839": "Karbi",
  "6840": "THEĠCONSTITUTIONĠOFĠĠINDIAĠ\n(SixthĠSchedule)ĠĠ28",
  "6841": "DistrictĠ\nCouncil",
  "6842": "ĠautonomousĠregion",
  "6843": "sub-paragraphĠ(3)",
  "6844": ",ĠtheĠfollowing",
  "6845": ",ĠthatĠisĠtoĠsay,Ġ",
  "6846": "vehicles",
  "6847": "chanic",
  "6848": "propell",
  "6849": "ĠsuchĠregion",
  "6850": "ĠofĠthisĠScheduleĠ",
  "6851": "sub-paragraphĠ(1)",
  "6852": "CodeĠof",
  "6853": "CodeĠofĠC",
  "6854": "12-1988",
  "6855": "ĠanyĠofĠtheĠmattersĠinĠthisĠ",
  "6856": "1950Ġ(",
  "6857": "LX",
  "6858": "ĠAbolition",
  "6859": "Estat",
  "6860": "Lands",
  "6861": "UttarĠPradeshĠActĠ",
  "6862": ").ĠTHEĠCONSTITUTIONĠOFĠĠINDIAĠ\n(NinthĠSchedule)Ġ3",
  "6863": "BiharĠLandĠReformsĠ(FixationĠofĠ",
  "6864": "BiharĠLandĠReformsĠ(FixationĠofĠCeilingĠ",
  "6865": "BiharĠLandĠReformsĠ(FixationĠofĠCeilingĠArea",
  "6866": "BiharĠLandĠReformsĠ(FixationĠofĠCeilingĠAreaĠandĠ",
  "6867": "BiharĠLandĠReformsĠ(FixationĠofĠCeilingĠAreaĠandĠAcquisition",
  "6868": "BiharĠLandĠReformsĠ(FixationĠofĠCeilingĠAreaĠandĠAcquisitionĠofĠ\nS",
  "6869": "BiharĠLandĠReformsĠ(FixationĠofĠCeilingĠAreaĠandĠAcquisitionĠofĠ\nSurplusĠ",
  "6870": "BiharĠLandĠReformsĠ(FixationĠofĠCeilingĠAreaĠandĠAcquisitionĠofĠ\nSurplusĠLand",
  "6871": "CeilingĠonĠHoldings",
  "6872": "MadhyaĠPradeshĠCeilingĠonĠAgriculturalĠ",
  "6873": "Ceil",
  "6874": "KeralaĠLandĠReformsĠ(",
  "6875": ").Ġ\n25",
  "6876": "demarc",
  "6877": "eptember,Ġ",
  "6878": "Nal",
  "6879": "Ġ0.",
  "6880": "ĠHaldibari",
  "6881": "ĠPatgramĠMekliganjĠ5",
  "6882": "guri",
  "6883": ".ĠBanskataĠ1",
  "6884": "ĠSitalkuchi",
  "6885": "angaĠDinhataĠBhurungamari",
  "6886": "Masaldanga",
  "6887": "ConstitutionĠ(OneĠHundredthĠAmendment)ĠAct,Ġ2015",
  "6888": "tail",
  "6889": "transferredĠ",
  "6890": "PPENDIX",
  "6891": "ConstitutionĠ(Ap",
  "6892": "ConstitutionĠ(ApplicationĠtoĠ",
  "6893": "ConstitutionĠ",
  "6894": "ĠIII",
  "6895": "ĠĠĠĠĠĠĠĠĠĠĠĠĠĠ",
  "6896": "effectĠ\n",
  "6897": "REA",
  "6898": "TERRI",
  "6899": "TERRITOR",
  "6900": "boundaries",
  "6901": "2ĠandĠ",
  "6902": "itizenship",
  "6903": "akistan",
  "6904": "voluntar",
  "6905": "ĠregulateĠtheĠ",
  "6906": "ĠbyĠlaw",
  "6907": "Ġ\nGeneral",
  "6908": "Ġder",
  "6909": "Ġderog",
  "6910": ".Ġ\n15",
  "6911": "discrimin",
  "6912": ".ĠĠ\n1",
  "6913": "ability",
  "6914": "actor",
  "6915": "ĠpaymentĠofĠ",
  "6916": "interestsĠofĠ",
  "6917": "uls",
  "6918": "certainĠ",
  "6919": "ĠtheirĠapplication",
  "6920": ".ĠApplication",
  "6921": "toĠbeĠfollowedĠbyĠtheĠ",
  "6922": "legal",
  "6923": ".ĠPromotionĠofĠ",
  "6924": "ageĠofĠsix",
  "6925": "envir",
  "6926": "monument",
  "6927": "EC",
  "6928": "powerĠofĠtheĠUnion",
  "6929": "ĠcasualĠ",
  "6930": "vacancy",
  "6931": "exĠoffic",
  "6932": "exĠofficio",
  "6933": "ĠactĠasĠ",
  "6934": "PresidentĠor",
  "6935": "ĠdischargeĠ",
  "6936": "vacancies",
  "6937": "Matter",
  "6938": "uspend,Ġre",
  "6939": "uspend,Ġremit",
  "6940": "ĠaidĠandĠadv",
  "6941": "vi)",
  "6942": ".ĠDutiesĠofĠ",
  "6943": "prorog",
  "6944": "Attorney-General",
  "6945": "Officers",
  "6946": "ĠnotĠtoĠpresideĠwhileĠaĠ\nresolutionĠforĠhisĠremovalĠfromĠofficeĠisĠunderĠconsideration",
  "6947": "Ġ\nunderĠarticleĠ",
  "6948": ".ĠSalariesĠandĠallowancesĠofĠ",
  "6949": "Bills",
  "6950": "upplementary",
  "6951": ".ĠRul",
  "6952": "LEGISLATIVE",
  "6953": "Ordinances",
  "6954": "ĠofĠĠ\n",
  "6955": "constitution",
  "6956": ".ĠĠ\nĠ1",
  "6957": ".ĠAppointmentĠofĠ",
  "6958": "ourtĠtoĠbeĠ",
  "6959": "laws.Ġ",
  "6960": "erti",
  "6961": "FederalĠCourtĠ",
  "6962": "Ġ\ntoĠbeĠ",
  "6963": ".Ġ\nĠ14",
  "6964": "ĠactĠin",
  "6965": "Court,Ġ",
  "6966": "Ġaccounts",
  "6967": "191",
  "6968": ",ĠprivilegesĠandĠ",
  "6969": "immunities",
  "6970": "their",
  "6971": "ĠMoneyĠBill",
  "6972": "GOVER",
  "6973": "GOVERN",
  "6974": "IGH",
  "6975": ".ĠApplicationĠofĠ",
  "6976": "ĠofĠaĠJudgeĠ",
  "6977": "fromĠoneĠ",
  "6978": ".ĠRec",
  "6979": "Panchayats.Ġ\n243",
  "6980": ",ĠauthorityĠandĠ",
  "6981": "responsibilities",
  "6982": ".ĠAudit",
  "6983": ".ĠElectionsĠtoĠtheĠ",
  "6984": ".ĠBarĠtoĠinterferenceĠbyĠ",
  "6985": "ĠofĠaĠmember",
  "6986": "SĠ\n",
  "6987": "ETWE",
  "6988": "ETWEEN",
  "6989": "quire",
  "6990": ".ĠĠ\nĠĠ",
  "6991": "putes",
  "6992": "ĠSU",
  "6993": "taxĠlevi",
  "6994": "distributedĠ",
  "6995": "essions,Ġtrades,Ġ",
  "6996": "essions,Ġtrades,Ġcalling",
  "6997": "ContingencyĠFund",
  "6998": "ĠmoneysĠreceiv",
  "6999": "impositionĠofĠ",
  "7000": "rights,ĠliabilitiesĠandĠobligation",
  "7001": "tia",
  "7002": "valueĠ",
  "7003": "withinĠ",
  "7004": "ĠorĠcon",
  "7005": "economicĠ",
  "7006": "depriv",
  "7007": "iĠ",
  "7008": "intercours",
  "7009": "ĠĠon",
  "7010": "Ġcarry",
  "7011": "articlesĠ",
  "7012": "conditionsĠofĠserviceĠof",
  "7013": "rank",
  "7014": "-India",
  "7015": "HAPTERĠII.—",
  "7016": "PUBLIC",
  "7017": "ĠconditionsĠofĠservic",
  "7018": "taffĠofĠtheĠ",
  "7019": "CommissionĠon",
  "7020": "edĠ\nin",
  "7021": "includedĠin",
  "7022": "ĠmakeĠprovision",
  "7023": "Anglo-IndianĠcommunityĠ",
  "7024": "NationalĠCommission",
  "7025": "40",
  "7026": "Ġ\nCHAPTERĠI.—",
  "7027": "languageĠ",
  "7028": "ME",
  "7029": "ĠandĠinĠtheĠ",
  "7030": "ĠofĠEmerg",
  "7031": "ĠofĠEmergency",
  "7032": "Ġaggression",
  "7033": "alĠdis",
  "7034": "emerg",
  "7035": "tedĠtoĠ",
  "7036": "olish",
  "7037": "Ġcompl",
  "7038": "emporaryĠ",
  "7039": "powerĠtoĠ",
  "7040": "sĠinĠtheĠ\n",
  "7041": ".ĠĠ\n371",
  "7042": "curredĠ",
  "7043": "ChairmanĠandĠtheĠ",
  "7044": "DeputyĠ\n",
  "7045": "JudgesĠofĠtheĠSupremeĠCourt",
  "7046": "Ġ—",
  "7047": "Ġ\nĠĠĠĠ",
  "7048": "Schedule.]",
  "7049": "ĠasĠit",
  "7050": "OmittedĠbyĠtheĠ\n",
  "7051": "ĠaĠnew",
  "7052": ";Ġ\n(b)Ġin",
  "7053": "nameĠof",
  "7054": "ProvidedĠthatĠno",
  "7055": "onĠtheĠrecommendation",
  "7056": ",ĠwhereĠtheĠ",
  "7057": "InĠthisĠarticle,Ġ",
  "7058": "includes",
  "7059": "UnionĠ\nterritory",
  "7060": "ĠasĠaforesaidĠ",
  "7061": "ĠofĠthisĠConstitutionĠforĠtheĠpurposes",
  "7062": ".ĠTheĠwordsĠandĠlettersĠ\"specifiedĠinĠPartĠAĠorĠ",
  "7063": ".ĠIns.ĠbyĠtheĠConstitutionĠĠ(",
  "7064": "ĠfiveĠ",
  "7065": ",ĠaĠperson",
  "7066": "allyĠ\n",
  "7067": "uly,Ġ",
  "7068": "edĠas",
  "7069": "ĠthatĠGovernment",
  "7070": "first",
  "7071": ".—C",
  "7072": "\nProvidedĠthatĠno",
  "7073": ".Ġ—EveryĠ",
  "7074": "suchĠc",
  "7075": "Ġloc",
  "7076": "shall,ĠtoĠtheĠextent",
  "7077": "territoryĠofĠ\nIndia",
  "7078": "against",
  "7079": "sĠonly",
  "7080": "religion,Ġrace,Ġcast",
  "7081": "e,Ġs",
  "7082": "\n(a)",
  "7083": "wholly",
  "7084": "s,Ġwhether",
  "7085": "inĠsoĠfar",
  "7086": "max",
  "7087": "maxim",
  "7088": "Ġcent.",
  "7089": "14-",
  "7090": ").ĠTHEĠCONSTITUTIONĠOFĠĠINDIAĠ\n(PartĠIII.—FundamentalĠRights)Ġ",
  "7091": "eĠand",
  "7092": ".Ġ—(1)Ġ\n",
  "7093": "Ġ\nofficeĠ",
  "7094": "ĠpostsĠin",
  "7095": "Ġfavour",
  "7096": "postsĠ",
  "7097": "ĠbeingĠ",
  "7098": "eparateĠ",
  "7099": "shallĠaffectĠtheĠoperation",
  "7100": "ĠadditionĠtoĠtheĠ",
  "7101": "NoĠ",
  "7102": "ilit",
  "7103": "ilitary",
  "7104": "ĠtheĠconsent",
  "7105": "eĠanyĠ",
  "7106": "rightĠ",
  "7107": "temptĠofĠ",
  "7108": "Ġsub-clauseĠ(Ġb)",
  "7109": "reasonableĠ",
  "7110": "interests",
  "7111": "Forty-fourthĠĠ",
  "7112": "withĠretrospectiveĠ\neffect",
  "7113": "thĠĠAmendment)ĠAct,Ġ",
  "7114": ").ĠĠ\n5",
  "7115": "\"Ġ(w.e.f.Ġ20-6-1979",
  "7116": "necessaryĠfor",
  "7117": "enceĠ\n",
  "7118": "necessaryĠforĠtheĠ",
  "7119": "qualifiedĠtoĠbeĠ",
  "7120": "appointed",
  "7121": "twoĠmonth",
  "7122": "ChiefĠJusticeĠofĠtheĠ",
  "7123": "7).Ġ\n",
  "7124": "ĠofficerĠor",
  "7125": "De",
  "7126": ";Ġ\n(ii)Ġ",
  "7127": "GovernmentĠofĠanyĠ",
  "7128": ",ĠsuchĠ",
  "7129": "ĠanyĠlawĠmadeĠ",
  "7130": "clausesĠ(Ġa",
  "7131": "ircumstanc",
  "7132": "ĠaĠperiodĠ",
  "7133": ";ĠandĠ\n",
  "7134": "edĠbyĠan",
  "7135": "(b)(",
  "7136": ").ĠĠ\n",
  "7137": "ĠareĠ\n",
  "7138": "\n(b)Ġ",
  "7139": "NoĠpersonĠshallĠbeĠ",
  "7140": "toĠtakeĠ",
  "7141": "ĠshallĠhaveĠtheĠrightĠto",
  "7142": ",Ġwhether",
  "7143": "ureĠthat",
  "7144": "edĠ\nby",
  "7145": "taking",
  "7146": "propertyĠ",
  "7147": "proper",
  "7148": ",ĠĠibid.Ġ(w.e.f.Ġ",
  "7149": "second",
  "7150": "trospectiveĠeffect",
  "7151": "takesĠ\n",
  "7152": "provisionsĠofĠthisĠarticleĠ",
  "7153": "ĠreservedĠfor",
  "7154": "ProvidedĠfurtherĠthat",
  "7155": "itĠshallĠnotĠbeĠ",
  "7156": "lawful",
  "7157": "uild",
  "7158": "uilding",
  "7159": ".ĠSubs.ĠbyĠ",
  "7160": "),Ġs.Ġ4,ĠforĠ\n\"",
  "7161": "prejudiceĠtoĠtheĠ",
  "7162": "ĠanyĠofĠtheĠ\n",
  "7163": "wardsĠ",
  "7164": "ĠthatĠitĠis",
  "7165": "1980",
  "7166": "sĠs",
  "7167": "directions",
  "7168": ",ĠĠ\n",
  "7169": "powersĠconferredĠ",
  "7170": "empower",
  "7171": "providedĠfor",
  "7172": "Ġ(w.e.f.Ġ1-2-1977",
  "7173": "ĠadaptationsĠandĠmodification",
  "7174": "edĠorĠrepeal",
  "7175": "tively",
  "7176": "meansĠofĠ",
  "7177": "common",
  "7178": "tice,Ġ",
  "7179": ",ĠbyĠ",
  "7180": "enableĠ",
  "7181": "industr",
  "7182": "agricult",
  "7183": "cientific",
  "7184": "ment,Ġ",
  "7185": "lationsĠ",
  "7186": "Ġarb",
  "7187": "Ġarbit",
  "7188": "Ġarbitr",
  "7189": "Ġdef",
  "7190": ";Ġ\n(f)Ġ",
  "7191": ";Ġ\n(h",
  "7192": "ThereĠshallĠbeĠaĠ",
  "7193": "vestedĠinĠtheĠ",
  "7194": "edĠbyĠhim",
  "7195": "practicabl",
  "7196": "ĠatĠtheĠ\n",
  "7197": "ĠofĠeachĠStateĠ",
  "7198": "ĠNow",
  "7199": "44ĠofĠ2006",
  "7200": "remainder",
  "7201": "hundred",
  "7202": "ingleĠ",
  "7203": "InĠthisĠarticle,ĠtheĠexpressionĠ“",
  "7204": "precedingĠcensus",
  "7205": "referenceĠin",
  "7206": "esĠforĠtheĠ",
  "7207": "ensusĠ",
  "7208": "Ġ\npublish",
  "7209": "construedĠasĠaĠreferenceĠtoĠtheĠ",
  "7210": "shallĠholdĠofficeĠ",
  "7211": "continueĠtoĠ",
  "7212": ".Ġ\n(2)ĠAnyĠ",
  "7213": "ĠclauseĠ(1)Ġshall",
  "7214": "eĠasĠ",
  "7215": "isĠaĠcitizenĠofĠIndia",
  "7216": "underĠanyĠ",
  "7217": "HouseĠofĠtheĠ\n",
  "7218": ".B.,Ġ",
  "7219": "ĠĠwill",
  "7220": "ĠĠwillĠĠ",
  "7221": "edĠforĠ",
  "7222": "Ġmov",
  "7223": "ĠtoĠmoveĠ",
  "7224": "toĠbeĠ\n",
  "7225": ".Ġ\n(4)ĠIf",
  "7226": "Ġ\nasĠ",
  "7227": "ĠĠinĠĠtheĠ",
  "7228": "ĠofĠthisĠChapter",
  "7229": "voteĠ",
  "7230": "eitherĠHouseĠofĠ\n",
  "7231": "eitherĠHouseĠofĠParliamentĠor",
  "7232": "bothĠ\n",
  "7233": "\n(c)Ġ",
  "7234": "mayĠbeĠremovedĠ",
  "7235": "mayĠbeĠremovedĠfromĠhisĠofficeĠ",
  "7236": "ĠofĠallĠtheĠ",
  "7237": "trueĠĠfaith",
  "7238": "egianceĠtoĠtheĠ",
  "7239": "egianceĠtoĠtheĠConstitutionĠofĠIndia",
  "7240": "byĠlawĠestablish",
  "7241": "decid",
  "7242": "decisionĠofĠtheĠ",
  "7243": "ĠforĠtheĠtimeĠbeingĠinĠforce",
  "7244": "SubjectĠtoĠtheĠ\nprovisions",
  "7245": "mattersĠwithĠrespectĠto",
  "7246": "exerciseĠofĠhis",
  "7247": "belongingĠto",
  "7248": "ests",
  "7249": "eĠinĠtheĠThirdĠSchedule",
  "7250": ",Ġs.",
  "7251": "ĠsuchĠother",
  "7252": "functionsĠconferredĠ",
  "7253": "ĠtheĠperform",
  "7254": "fromĠtimeĠtoĠti",
  "7255": "fromĠtimeĠtoĠtime",
  "7256": "notĠmoreĠthanĠ",
  "7257": "Ġconsis",
  "7258": "knowledg",
  "7259": "ĠshallĠ\nbeĠ",
  "7260": "ĠasĠParliamentĠmayĠbyĠlaw",
  "7261": "ĠthirtyĠ",
  "7262": "entyĠ",
  "7263": "ratio",
  "7264": "toĠterritorialĠconstituencies",
  "7265": "sĠall",
  "7266": "ĠPartĠ",
  "7267": "ts.Ġ",
  "7268": "Goa,ĠDamanĠandĠDiuĠReorganisationĠAct,Ġ1987",
  "7269": "Goa,ĠDamanĠandĠDiuĠReorganisationĠAct,Ġ1987Ġ(18ĠofĠ198",
  "7270": "forĠtheĠpurposesĠofĠ",
  "7271": "onĠtheĠbasisĠofĠtheĠ",
  "7272": "rovidedĠalso",
  "7273": ",ĠforĠcertainĠwordsĠ(w.e.f.Ġ",
  "7274": "ĠasĠnearly",
  "7275": "one-third",
  "7276": "membersĠthereof",
  "7277": "HouseĠofĠtheĠPeople,Ġ",
  "7278": ")ĠandĠfurtherĠsubs.ĠbyĠtheĠConstitutionĠ(",
  "7279": "assemb",
  "7280": ",ĠandĠfor",
  "7281": "attendanceĠof",
  "7282": ",Ġ\nwhether",
  "7283": "ĠtheĠprocedur",
  "7284": ",ĠandĠotherwiseĠ",
  "7285": "whichĠheĠ",
  "7286": "vacant,ĠtheĠ",
  "7287": "vacateĠ",
  "7288": "ĠatĠanyĠtime,Ġ",
  "7289": "ĠfromĠhisĠofficeĠ",
  "7290": "Ġpresent,Ġ",
  "7291": "ĠasĠtheyĠapplyĠinĠrelationĠto",
  "7292": ".ĠTHEĠCONSTITUTIONĠOFĠĠINDIAĠ\n(PartĠV.—TheĠUnion)Ġ",
  "7293": "ĠspeakĠin",
  "7294": "ĠwhileĠ",
  "7295": "ĠsuchĠresolution",
  "7296": ",Ġwhen",
  "7297": "ĠshallĠnotĠ",
  "7298": "ĠappointĠ",
  "7299": "butĠ\n",
  "7300": "notĠin",
  "7301": "preven",
  "7302": ",ĠorĠpersonĠacting",
  "7303": ",ĠorĠpersonĠactingĠasĠsuch",
  "7304": "soĠtoĠdo",
  "7305": "ĠParliamentĠbyĠlaw",
  "7306": "ĠotherwiseĠprovides",
  "7307": "thereĠis",
  "7308": "ĠshallĠbeĠmadeĠ",
  "7309": "ĠaĠmemberĠofĠ",
  "7310": "oneĠ\n",
  "7311": "ChairmanĠorĠtheĠSpeaker",
  "7312": "Ġthereupon",
  "7313": "withĠtheĠ\n",
  "7314": "secondĠAmendment)ĠAct,Ġ198",
  "7315": "3-1985",
  "7316": "Ġdecision",
  "7317": "(a)Ġ",
  "7318": "wasĠomittedĠbyĠtheĠConstitutionĠ(",
  "7319": "5Ġ(w.e.f.Ġ20-6-1979",
  "7320": "3,Ġibid.Ġ(w.e.f.Ġ",
  "7321": "ĠandĠitsĠ",
  "7322": ",ĠandĠno",
  "7323": "rat",
  "7324": "Ġconditions",
  "7325": "ĠapplicableĠ",
  "7326": "ĠmembersĠofĠtheĠ",
  "7327": "ConstituentĠAssembly",
  "7328": "itĠhasĠbeen",
  "7329": "edĠbyĠ\ntheĠ",
  "7330": "ĠwhichĠis",
  "7331": "ĠitĠwasĠ",
  "7332": "followingĠmatters,Ġ",
  "7333": "ĠtheĠpublicĠaccount",
  "7334": "ĠanyĠofĠtheĠmattersĠspecifiedĠin",
  "7335": "reques",
  "7336": "inĠhis",
  "7337": "sumsĠrequiredĠ",
  "7338": "toĠmeet",
  "7339": "ĠandĠotherĠ\n",
  "7340": "pensionsĠpay",
  "7341": "beforeĠtheĠcommencementĠofĠthisĠ\nConstitution",
  "7342": ",ĠandĠtheĠ\n",
  "7343": "onĠtheĠConsolidatedĠFundĠofĠIndia",
  "7344": "entĠon",
  "7345": "excess",
  "7346": "ĠandĠalso",
  "7347": "ĠtheyĠhaveĠ",
  "7348": "can",
  "7349": "underĠclauseĠ(1)",
  "7350": "mentionedĠinĠtheĠ",
  "7351": "Ġprevail",
  "7352": "dateĠnotĠ",
  "7353": "Notwithstanding",
  "7354": "dischargeĠofĠhis",
  "7355": "Ġwhom",
  "7356": "Ġwe",
  "7357": "Ġweek",
  "7358": "Ġconsisting",
  "7359": "JudgeĠofĠtheĠSupremeĠCourtĠ",
  "7360": "arrantĠ",
  "7361": "arrantĠunderĠhisĠhand",
  "7362": "onĠtheĠrecommendationĠofĠtheĠ",
  "7363": "ĠauthorityĠandĠin",
  "7364": "Thirty-eighthĠAmendment)ĠAct,Ġ",
  "7365": "Thirty-eighthĠAmendment)ĠAct,Ġ1975",
  "7366": "13-4-2015).ĠThisĠamendmentĠ",
  "7367": "SupremeĠCourtĠinĠtheĠcaseĠofĠSupremeĠCourtĠAdvocates",
  "7368": "-on-RecordĠAssociation",
  "7369": "UnionĠofĠIndiaĠinĠ",
  "7370": "ĠasĠunder",
  "7371": "whichĠ\n",
  "7372": "ĠwhichĠaĠperson",
  "7373": "knownĠasĠtheĠ",
  "7374": "eader",
  "7375": "ScheduledĠ\nTrib",
  "7376": "SupremeĠCourt,Ġ",
  "7377": "esĠandĠother",
  "7378": "ĠlawĠmadeĠbyĠParliament",
  "7379": "advanta",
  "7380": "advantageĠ",
  "7381": "allĠtheĠ",
  "7382": "ĠdulyĠ",
  "7383": "itself",
  "7384": ",ĠtheĠSupremeĠCourtĠ",
  "7385": "aris",
  "7386": "enteredĠin",
  "7387": "enteredĠinto",
  "7388": "esĠ.—(1)Ġ",
  "7389": "ĠaĠsubstanti",
  "7390": "*ĠĠĠĠĠĠĠĠĠĠĠĠĠ",
  "7391": ".Ġ\nExplanation.—Ġ",
  "7392": "Ġappe",
  "7393": ".ĠCertainĠword",
  "7394": ".ĠCertainĠwords",
  "7395": ").Ġ\n3.ĠSubs.ĠbyĠtheĠ",
  "7396": "ĠorĠonĠbehalf",
  "7397": "ĠtoĠwhich",
  "7398": "ĠthatĠmatter",
  "7399": "ĠagreementĠ",
  "7400": "ĠorĠby",
  "7401": "Ġdispos",
  "7402": ".Ġ\n14",
  "7403": "lik",
  "7404": "Dec",
  "7405": "1954",
  "7406": "s,ĠbracketsĠandĠ",
  "7407": "anyĠofĠtheĠ",
  "7408": ";Ġ\n1[(",
  "7409": "articl",
  "7410": ".Ġ\n(6)ĠTheĠ",
  "7411": "kep",
  "7412": "ĠshallĠcauseĠ",
  "7413": "ĠofĠthatĠState",
  "7414": "administer",
  "7415": "Ġ\ntheĠGovernor",
  "7416": "*ĠĠĠĠĠĠĠĠĠĠĠĠĠĠĠĠĠĠĠĠĠĠĠĠĠĠĠĠ",
  "7417": "AndhraĠPradeshĠReorganisationĠAct,Ġ2014",
  "7418": "6ĠofĠ",
  "7419": ",ĠifĠtheĠ",
  "7420": "ĠthatĠeffectĠ",
  "7421": "totalĠnumberĠofĠseatsĠ",
  "7422": "orĠunder",
  "7423": "eĠofĠIndia,ĠExtraordinary,Ġ",
  "7424": "wereĠ\n",
  "7425": "correspondingĠProvin",
  "7426": ":Ġ\nProvidedĠfurther",
  "7427": "ĠtheĠconsiderationĠofĠtheĠPresident",
  "7428": "ConsolidatedĠFundĠofĠtheĠStateĠ",
  "7429": "omitted",
  "7430": "chal",
  "7431": "chalĠ\nPradesh",
  "7432": "effectĠasĠif",
  "7433": "),Ġs.Ġ39",
  "7434": "Ġ(w.e.f.Ġ20-2-1987",
  "7435": "wouldĠhaveĠ",
  "7436": "aĠĠ",
  "7437": ",ĠifĠany",
  "7438": "twoĠyears",
  "7439": "cl.Ġ(",
  "7440": "inĠrelationĠtoĠtheĠ",
  "7441": "allow",
  "7442": "Ġpetition",
  "7443": ",ĠforĠcls.Ġ",
  "7444": "prescribeĠ",
  "7445": "Ġapproval",
  "7446": "StateĠPublicĠServiceĠCommission",
  "7447": "posting",
  "7448": "ĠorĠtransfer",
  "7449": "ĠserviceĠor",
  "7450": "uducherry",
  "7451": "suchĠlawĠasĠisĠreferredĠtoĠin",
  "7452": "Ġ\nbyĠtheĠ",
  "7453": "Pondicherry\"Ġ(w.e.f.Ġ",
  "7454": "Pondicherry\"Ġ(w.e.f.Ġ1-10-200",
  "7455": "Li",
  "7456": "Lie",
  "7457": "Lieut",
  "7458": "Lieuten",
  "7459": "seatsĠin",
  "7460": "ĠanyĠpart",
  "7461": "Entr",
  "7462": "laws,Ġ",
  "7463": "Ġsuppl",
  "7464": "progres",
  "7465": "sland",
  "7466": "repealĠor",
  "7467": "Ġappli",
  "7468": "Chapter",
  "7469": "ĠofĠ\nthisĠ",
  "7470": "LegislatureĠofĠaĠStateĠmay,ĠbyĠlaw,ĠmakeĠprovision",
  "7471": "Amendment)ĠAct,Ġ1992",
  "7472": ".—TheĠPanchayats",
  "7473": ".—TheĠPanchayats)ĠĠ",
  "7474": ".Ġ\n(2)ĠAll",
  "7475": "totalĠp",
  "7476": "totalĠpopulation",
  "7477": "sĠtoĠ\ntheĠ",
  "7478": "dissolv",
  "7479": "concerned",
  "7480": "list",
  "7481": "taxes,Ġduties,ĠtollsĠandĠ",
  "7482": "edĠandĠ\n",
  "7483": "ĠrespectiveĠ",
  "7484": "iii)ĠtheĠ",
  "7485": "mannerĠinĠwhich",
  "7486": "emorandum",
  "7487": "uditing",
  "7488": "LegislatureĠorĠotherĠcompetent",
  "7489": "immediatelyĠbeforeĠ",
  "7490": "orĠ\n",
  "7491": "porting",
  "7492": "MetropolitanĠarea",
  "7493": "THEĠCONSTITUTIONĠOFĠĠINDIAĠ\n(PartĠIXA.Ġ—TheĠMunicipalities)Ġ\nĠ1",
  "7494": "deemĠf",
  "7495": "constitu",
  "7496": "ĠCommittees",
  "7497": "GovernmentĠofĠtheĠState",
  "7498": "ecretary",
  "7499": "”ĠmeansĠanyĠ",
  "7500": "eties",
  "7501": "co-operativeĠsocietyĠ",
  "7502": "ĠofĠservic",
  "7503": "document",
  "7504": "4-1985",
  "7505": "UnionĠterritoryĠofĠMizoram",
  "7506": "autonomousĠStateĠ",
  "7507": "takesĠplaceĠ",
  "7508": "ĠorĠofĠanyĠ",
  "7509": "ingĠtheĠcontinu",
  "7510": "directionsĠto",
  "7511": "UnionĠand",
  "7512": "ĠorĠw",
  "7513": "II.Ġ—Finance,ĠProperty,ĠContractsĠandĠSuits)Ġ\nĠ15",
  "7514": "269A",
  "7515": "(1)ĠandĠ(",
  "7516": "sur",
  "7517": "num",
  "7518": "Act,Ġ1956,Ġs.Ġ29ĠandĠSch.Ġ(w.e.f.Ġ1-11-1956",
  "7519": "Ġconsumption",
  "7520": ",ĠorĠauthoris",
  "7521": "tyĠthousandĠ",
  "7522": "GovernorĠ2***",
  "7523": "e.Ġ—",
  "7524": "manufact",
  "7525": ".Ġ\nĠ\n",
  "7526": "civilĠserviceĠofĠtheĠ",
  "7527": "underĠtheĠ\n",
  "7528": "ĠtheĠprovisoĠto",
  "7529": "s)Ġ",
  "7530": "ĠorĠ\nmodification",
  "7531": "ĠtoĠ\ntheĠ",
  "7532": "2[orĠUnionĠterritory]",
  "7533": "bearsĠtoĠtheĠ",
  "7534": "autonomousĠdistrict",
  "7535": "evalu",
  "7536": "tyĠyears”",
  "7537": "ĠsuchĠreportsĠ",
  "7538": "ĠaĠmemorandumĠexplainingĠtheĠ",
  "7539": "ĠaĠmemorandumĠexplainingĠtheĠactionĠtaken",
  "7540": "edĠtoĠbeĠtaken",
  "7541": "Ġconcern",
  "7542": "s.Ġ2Ġ(w.e.f.Ġ",
  "7543": ".ĠArt.",
  "7544": "sociallyĠandĠeducationallyĠbackwardĠclasses",
  "7545": "ĠorĠgroup",
  "7546": "ĠaĠnotification",
  "7547": "immediatelyĠbeforeĠsuchĠcommencement",
  "7548": "ĠafterĠitsĠ",
  "7549": "reconstitution",
  "7550": "ĠshallĠceaseĠ",
  "7551": "ForeignĠ",
  "7552": "Ġamen",
  "7553": "raw",
  "7554": "equitableĠ",
  "7555": "StateĠofĠNagalandĠ",
  "7556": "noĠActĠofĠtheĠ",
  "7557": "ĠasĠtoĠhaveĠ",
  "7558": "ĠasĠtoĠhaveĠre",
  "7559": ".ĠĠ2-6-2014",
  "7560": "AdministrativeĠTribunal",
  "7561": "noĠeffect",
  "7562": "revenueĠ",
  "7563": "adaptation",
  "7564": "une,Ġ",
  "7565": "SectionĠ3",
  "7566": ",Ġp.Ġ",
  "7567": "datedĠtheĠ\n",
  "7568": ").ĠĠ\n38",
  "7569": "AndhraĠPradeshĠandĠ",
  "7570": ")ĠAct,Ġ1968",
  "7571": "territoriesĠwhichĠimmediatelyĠbeforeĠtheĠ\ncommencementĠofĠthisĠConstitution",
  "7572": "territoriesĠwhichĠimmediatelyĠbeforeĠtheĠ\ncommencementĠofĠthisĠConstitutionĠwereĠ",
  "7573": "ĠofĠ\nsection",
  "7574": "Ġ\nReorganisationĠAct,Ġ",
  "7575": "ĠandĠUttarĠPradeshĠ(",
  "7576": ")ĠofĠsub-sectionĠ(Ġ1)",
  "7577": "Ġ11",
  "7578": "PunjabĠReorganisationĠAct,Ġ",
  "7579": "1966Ġ(",
  "7580": "8[",
  "7581": "Ġ(w.e.f.Ġ31-10-2019",
  "7582": ":—Ġ\n",
  "7583": "1-2016",
  "7584": ":—Ġ\n“I",
  "7585": "thatĠI",
  "7586": "ĠupholdĠtheĠsovereigntyĠandĠintegrityĠofĠIndia",
  "7587": "1[2[",
  "7588": ",ĠshallĠhaveĠ",
  "7589": "regions",
  "7590": "Amendment)ĠAct,Ġ2003Ġ(44ĠofĠ2003),Ġs.Ġ2",
  "7591": ".ĠSubs.ĠbyĠtheĠNorth-EasternĠAreasĠ(Reorganisation)ĠAct,Ġ1971Ġ(81ĠofĠ1971),Ġs.Ġ71(i",
  "7592": ",ĠincludingĠ",
  "7593": "KarbiĠAngl",
  "7594": "KarbiĠAnglong",
  "7595": "propelledĠ",
  "7596": "eases",
  "7597": "nationalĠimportance",
  "7598": "villageĠcouncil",
  "7599": "THEĠCONSTITUTIONĠOFĠĠINDIAĠ\n(SixthĠSchedule)ĠĠ29",
  "7600": "ĠaĠDistrictĠCouncil",
  "7601": "16-12-1988",
  "7602": "ĠorĠaĠRegionalĠCouncil",
  "7603": "ĠofĠ1988",
  "7604": "Na",
  "7605": ").ĠTHEĠCONSTITUTIONĠOFĠĠINDIAĠ\n(SeventhĠSchedule)ĠĠ\nĠ3",
  "7606": "ĠofĠ1950",
  "7607": "BombayĠActĠ",
  "7608": "ĠofĠ1951",
  "7609": "2ĠofĠtheĠ",
  "7610": "GujaratĠ",
  "7611": "______________________________________________Ġ\n1.ĠEntriesĠ",
  "7612": "MaharashtraĠAgriculturalĠLandsĠ(CeilingĠonĠHoldings",
  "7613": "Ceiling",
  "7614": "BiharĠLandĠReformsĠ(FixationĠofĠCeilingĠAreaĠandĠAcquisitionĠofĠ\nSurplusĠLand)Ġ(",
  "7615": "Amendment)ĠAct,Ġ1972Ġ(",
  "7616": "Ġ\n(WestĠBengalĠActĠ",
  "7617": "Ġ(CentralĠ\n",
  "7618": "Ġ(CentralĠ\nActĠ",
  "7619": "PreventionĠofĠ",
  "7620": "TamilĠNaduĠLandĠReformsĠ(FixationĠofĠCeilingĠonĠLand)Ġ\nAmendmentĠAct,Ġ",
  "7621": "LawsĠ(",
  "7622": "kaĠ",
  "7623": "Amendment)ĠAct,Ġ1989Ġ(",
  "7624": "eptember,Ġ2011",
  "7625": "ANG",
  "7626": "ANGLA",
  "7627": "ANGLAD",
  "7628": "ANGLADES",
  "7629": "ANGLADESH",
  "7630": "Ġ\nTheĠboundaryĠshallĠbeĠdrawn",
  "7631": "BoundaryĠPillarĠNo.Ġ\n1",
  "7632": "Ġ\nNo.Ġ",
  "7633": "Da",
  "7634": "Kal",
  "7635": "ĠPoch",
  "7636": "ĠPochag",
  "7637": "ĠPochagarĠH",
  "7638": "ĠPochagarĠHaldibari",
  "7639": "libari",
  "7640": "ulbari",
  "7641": "ĠĠ\nĠ(iii)Ġ",
  "7642": "Dhabal",
  "7643": "MasaldangaĠDinhataĠBhurungamari",
  "7644": "Ġfif",
  "7645": "tĠup",
  "7646": "ConstitutionĠ(ApplicationĠtoĠJammuĠandĠKashmir",
  "7647": ".Ġ\nP",
  "7648": "ĠĠĠĠĠĠĠĠĠ",
  "7649": "w.e.f.",
  "7650": "MB",
  "7651": "ĠTERRITOR",
  "7652": "ĠSikkim",
  "7653": "thĠSchedul",
  "7654": "matters.Ġ\n",
  "7655": ".ĠRightsĠofĠcitizenship",
  "7656": ".ĠRightsĠofĠcitizenshipĠofĠcertain",
  "7657": "migr",
  "7658": "Ġmigr",
  "7659": "antsĠ",
  "7660": "eĠIndia",
  "7661": "ingĠc",
  "7662": "ii)\n",
  "7663": "Ġ\n12",
  "7664": ".ĠĠĠĠ",
  "7665": ".ĠAbolition",
  "7666": "Ġ\n19",
  "7667": "viction",
  "7668": "lif",
  "7669": "Ġeducation",
  "7670": "tĠandĠ",
  "7671": "traf",
  "7672": "traffic",
  "7673": "ligion",
  "7674": "freeĠ",
  "7675": "profession",
  "7676": "s.Ġ\n2",
  "7677": "ĠreligiousĠin",
  "7678": "ship",
  "7679": "s.ĠContentsĠ\nĠ\nĠĠĠARTICLESĠ(",
  "7680": ".ĠRightĠofĠ",
  "7681": "principles",
  "7682": "ĠtoĠgiveĠeffectĠto",
  "7683": "ĠIV",
  "7684": "PLE",
  "7685": "alĠorder",
  "7686": "ĠforĠtheĠp",
  "7687": "rinciplesĠofĠ",
  "7688": "ganis",
  "7689": "Ġmanagement",
  "7690": "Ġco",
  "7691": "chil",
  "7692": "Ġinteres",
  "7693": "ĠandĠtoĠ",
  "7694": "publicĠh",
  "7695": "alĠhus",
  "7696": "alĠhusband",
  "7697": "environment",
  "7698": "wil",
  "7699": "monumentsĠandĠ",
  "7700": "Term",
  "7701": "TermĠofĠoffic",
  "7702": "TermĠofĠofficeĠofĠ",
  "7703": "Ġre-",
  "7704": ".ĠProcedureĠ",
  "7705": "vacancyĠinĠtheĠofficeĠofĠ",
  "7706": "ĠelectedĠtoĠfill",
  "7707": "PresidentĠtoĠbeĠ",
  "7708": "9.ĠOathĠorĠaffirmation",
  "7709": "chargeĠofĠ",
  "7710": "’sĠ",
  "7711": "tingencies",
  "7712": "grantĠpar",
  "7713": "grantĠpard",
  "7714": "grantĠpardons",
  "7715": "ĠcommuteĠ",
  "7716": ".ĠExtent",
  "7717": ".ĠExtentĠofĠ",
  "7718": "ĠofĠ\nin",
  "7719": ".ĠCompositionĠofĠtheĠ",
  "7720": "sendĠ",
  "7721": "sendĠmess",
  "7722": "sendĠmessag",
  "7723": "ĠasĠrespectsĠ",
  "7724": "VacationĠandĠresignationĠof,ĠandĠremovalĠfrom,ĠtheĠofficesĠofĠ\n",
  "7725": "SpeakerĠorĠtheĠDeputyĠSpeaker",
  "7726": "Houses,Ġ",
  "7727": "HousesĠto",
  "7728": "ĠactĠnotwithstanding",
  "7729": "Im",
  "7730": "committeesĠthereof",
  "7731": "Ġintro",
  "7732": ".ĠSpecialĠprocedureĠ",
  "7733": "FinancialĠ",
  "7734": ".ĠSpecialĠprovisions",
  "7735": ".ĠRulesĠofĠ",
  "7736": "20.Ġ",
  "7737": "ateĠOrdinances",
  "7738": "UD",
  "7739": "mentĠandĠ",
  "7740": "tiredĠ",
  "7741": "iginalĠ",
  "7742": "Omitted.]Ġ\n",
  "7743": ".ĠApp",
  "7744": ".ĠAppel",
  "7745": ".ĠAppellateĠ",
  "7746": "ertific",
  "7747": "larg",
  "7748": "wr",
  "7749": "39A",
  "7750": "GENER",
  "7751": "GENERAL",
  "7752": "GovernorsĠofĠ",
  "7753": "functionsĠofĠtheĠGovernor",
  "7754": "HouseĠorĠ\n",
  "7755": "ĠĠandĠ",
  "7756": "ĠofĠtheĠLegislativeĠCouncil",
  "7757": ",ĠprivilegesĠandĠimmunities",
  "7758": "BillsĠ",
  "7759": "202",
  "7760": "ĠCOURTS",
  "7761": ".ĠConstitutionĠofĠ",
  "7762": "ĠallĠcourt",
  "7763": "jurisdictionĠofĠ",
  "7764": "232",
  "7765": "231",
  "7766": "ATE",
  "7767": "e.Ġ\n2",
  "7768": ".ĠControl",
  "7769": "classesĠofĠ",
  "7770": "IRST",
  "7771": "IRSTĠSCHEDULE",
  "7772": ".ĠAdministrationĠofĠ",
  "7773": "localĠ",
  "7774": "ĠofĠadministr",
  "7775": "ĠIX",
  "7776": ",ĠauthorityĠandĠresponsibilities",
  "7777": ",ĠauthorityĠandĠresponsibilitiesĠofĠ",
  "7778": ".ĠAuditĠof",
  "7779": ".ĠAuditĠofĠaccoun",
  "7780": ".ĠAuditĠofĠaccountsĠofĠ",
  "7781": ".ĠApplicationĠtoĠ",
  "7782": ".ĠPartĠ",
  "7783": ".ĠContinuanceĠofĠ",
  "7784": ".ĠContinuanceĠofĠexistingĠlaw",
  "7785": ".ĠBarĠtoĠinterferenceĠbyĠcourt",
  "7786": "sĠinĠelectoralĠ",
  "7787": "ĠofĠboard",
  "7788": "upers",
  "7789": "penalties",
  "7790": "ulti-StateĠ",
  "7791": "tribalĠ\n",
  "7792": "LATIONS",
  "7793": "istributionĠofĠ",
  "7794": "lawsĠmadeĠbyĠParliamentĠandĠ",
  "7795": "LegislaturesĠofĠStates",
  "7796": ".ĠPowerĠofĠParliamentĠtoĠlegis",
  "7797": ".ĠPowerĠofĠParliamentĠtoĠlegislateĠ",
  "7798": "previousĠ",
  "7799": "ĠarmedĠfor",
  "7800": "cesĠofĠtheĠUnion",
  "7801": "medĠ",
  "7802": "medĠFor",
  "7803": "FirstĠ\n",
  "7804": "Ġv",
  "7805": "PERTY",
  "7806": "TRAC",
  "7807": "TRACTS",
  "7808": "68",
  "7809": "collected",
  "7810": "UnionĠandĠtheĠ\n",
  "7811": "269",
  "7812": "leviedĠandĠcollectedĠbyĠtheĠ",
  "7813": "collection",
  "7814": ".Ġ\n27",
  "7815": "esĠwhich",
  "7816": "eu",
  "7817": "jut",
  "7818": "Ġprofessions,Ġtrades,Ġcalling",
  "7819": "Ġprofessions,Ġtrades,ĠcallingsĠandĠ",
  "7820": "PartĠBĠofĠtheĠFirstĠScheduleĠ",
  "7821": "UnionĠorĠaĠStateĠ",
  "7822": "creditedĠto",
  "7823": "taxesĠonĠ",
  "7824": "evas",
  "7825": "yĠpur",
  "7826": "WI",
  "7827": "uccessionĠto",
  "7828": "resourcesĠofĠtheĠ",
  "7829": "Ġcarr",
  "7830": "ĠcarryĠ",
  "7831": "uitsĠandĠ",
  "7832": "Ġ\n30",
  "7833": "andĠintercours",
  "7834": "ĠwithĠregardĠ",
  "7835": "commerce",
  "7836": "ĠĠonĠĠ",
  "7837": "301",
  "7838": "ERVI",
  "7839": "UnionĠorĠaĠState",
  "7840": "IVA",
  "7841": "s.ĠĠ",
  "7842": "directionĠandĠcontrol",
  "7843": "ĠonĠground",
  "7844": "PECIAL",
  "7845": ".ĠReservationĠofĠseatsĠ",
  "7846": "HouseĠofĠ\ntheĠ",
  "7847": "LegislativeĠAssembliesĠofĠtheĠStates",
  "7848": "ben",
  "7849": "benef",
  "7850": "ĠaĠCommission",
  "7851": "ĠLA",
  "7852": "OfficialĠlanguag",
  "7853": "Ġcommunication",
  "7854": "ĠoneĠStateĠ",
  "7855": "Ġ\nlanguag",
  "7856": "presentation",
  "7857": "350",
  "7858": "ingu",
  "7859": "inguis",
  "7860": "inguistic",
  "7861": "Ġminor",
  "7862": "irec",
  "7863": "EM",
  "7864": "aĠProclamationĠofĠEmergencyĠisĠinĠoperation",
  "7865": "external",
  "7866": "externalĠaggression",
  "7867": "rightsĠconferredĠbyĠ",
  "7868": "political",
  "7869": "ersĠofĠ",
  "7870": "Ġmajor",
  "7871": "xxv",
  "7872": "ĠtheĠConstitution",
  "7873": ".Ġ\n37",
  "7874": "JammuĠandĠ\n",
  "7875": "JammuĠandĠ\nKashmir",
  "7876": "Maharashtra",
  "7877": ".ĠSpecialĠprovisionĠwithĠrespectĠtoĠtheĠStateĠofĠ",
  "7878": "ĠorĠ\ntheĠ",
  "7879": "73",
  "7880": "tyĠin",
  "7881": "ĠprovisionalĠ",
  "7882": "ĠOmit",
  "7883": "Schedule.",
  "7884": "31stĠ",
  "7885": "Ġremo",
  "7886": "itativeĠ",
  "7887": "SC",
  "7888": "PresidentĠandĠtheĠ",
  "7889": "SpeakerĠandĠtheĠ",
  "7890": "eopleĠ",
  "7891": "TribalĠAreasĠ",
  "7892": "ENTHĠSCHEDULE",
  "7893": "ListĠII",
  "7894": "Ġinto",
  "7895": "toĠp",
  "7896": "romoteĠ",
  "7897": "ĠAS",
  "7898": "specifiedĠinĠ\ntheĠ",
  "7899": "ĠofĠtheĠStates",
  "7900": "suchĠotherĠ",
  "7901": "A.Ġ[",
  "7902": "26-4-",
  "7903": "26-4-1975",
  "7904": "ĠorĠbyĠ\n",
  "7905": ";Ġ\n(e)",
  "7906": "ĠanyĠState",
  "7907": "______________________________________________Ġ\n1.ĠSubs.ĠbyĠtheĠConstitutionĠ(",
  "7908": "ĠsuchĠperiod",
  "7909": "specifiedĠinĠtheĠ\n",
  "7910": "territory,Ġ",
  "7911": "Ġ\na",
  "7912": "upplemental,ĠincidentalĠandĠconsequenti",
  "7913": "Ġ\nreferredĠtoĠin",
  "7914": "ĠsuchĠprovision",
  "7915": "lawĠandĠ",
  "7916": "anĠ\n",
  "7917": "\"ĠomittedĠbyĠtheĠ\n",
  "7918": "ConstitutionĠ(SeventhĠAmendment)ĠAct,Ġ1956",
  "7919": ",ĠeveryĠ",
  "7920": "whoseĠ",
  "7921": "residentĠ",
  "7922": "yearsĠ",
  "7923": "GovernmentĠofĠIndiaĠAct,Ġ1935",
  "7924": "July,Ġ",
  "7925": "ĠappointedĠinĠthatĠbehalf",
  "7926": "Ġprescrib",
  "7927": "March,Ġ",
  "7928": "matic",
  "7929": "personĠwhoĠis",
  "7930": "Ġdeem",
  "7931": "thingĠ\n",
  "7932": "Ġlocal",
  "7933": "sĠinĠforceĠ",
  "7934": "travention",
  "7935": "ed,Ġ\n",
  "7936": "onĠgroundsĠonly",
  "7937": "ĠorĠanyĠofĠthem",
  "7938": "Ġcitizen",
  "7939": "5-1",
  "7940": "5-11-1971",
  "7941": "publicĠ\n",
  "7942": "useĠof",
  "7943": "useĠofĠtheĠ",
  "7944": "specialĠprovision",
  "7945": "ĠclauseĠ(2)ĠofĠarticleĠ",
  "7946": "clauseĠ(2)ĠofĠarticleĠ",
  "7947": "ĠpreventĠtheĠStateĠfromĠmaking",
  "7948": ",—Ġ\n(a)",
  "7949": "weakerĠsection",
  "7950": "4)ĠandĠ(",
  "7951": "14-1-",
  "7952": "ĠpreventĠ",
  "7953": "localĠorĠotherĠauthorityĠ",
  "7954": "ĠanyĠ\nprovision",
  "7955": "opinionĠofĠtheĠ",
  "7956": "favour",
  "7957": "StateĠspecifiedĠinĠtheĠ",
  "7958": ").Ġ\n3.ĠSubs.ĠbyĠtheĠConstitutionĠ(",
  "7959": ").Ġ\n4.ĠIns.ĠbyĠtheĠConstitutionĠ(",
  "7960": "notĠbeing",
  "7961": "Ġ\ndis",
  "7962": "Ġaccept",
  "7963": "trus",
  "7964": "shallĠhaveĠtheĠ",
  "7965": "o-operativeĠsocieties",
  "7966": "ĠanyĠpartĠofĠtheĠterritoryĠofĠIndia",
  "7967": "*ĠĠĠĠĠĠĠĠĠĠĠĠĠĠĠĠĠĠĠĠ",
  "7968": "Ġoccup",
  "7969": ".Ġ\n3[(",
  "7970": "restrictionsĠonĠtheĠ",
  "7971": "ĠinĠsoĠfar",
  "7972": "Ġ\nanyĠlaw",
  "7973": "Ġimposing",
  "7974": "Forty-fourthĠĠAmendment)ĠAct,Ġ1978",
  "7975": "ĠanyĠlawĠrelatingĠto",
  "7976": "orporation",
  "7977": "yĠor",
  "7978": "punish",
  "7979": "ĠprovideĠ",
  "7980": "detain",
  "7981": "jour",
  "7982": "ĠclausesĠ(1)ĠandĠ(",
  "7983": "tedĠor",
  "7984": "ĠpreventiveĠdetention",
  "7985": "ĠAd",
  "7986": "Bo",
  "7987": "ĠofĠthreeĠ",
  "7988": "fficientĠ",
  "7989": "causeĠ",
  "7990": "ĠstandĠ",
  "7991": "edĠinĠaccordanceĠwith",
  "7992": ".\"",
  "7993": "Ġsub-clauseĠ",
  "7994": "ĠwhichĠtheĠ\n",
  "7995": "Ġwithout",
  "7996": ")Ġshall",
  "7997": "re-letter",
  "7998": "re-letteredĠasĠ",
  "7999": "Tra",
  "8000": "health",
  "8001": "otherĠprovisions",
  "8002": "Ġwelfar",
  "8003": "Hind",
  "8004": "sĠ.—",
  "8005": "ableĠ\n",
  "8006": "ĠpropertyĠ",
  "8007": "atedĠin",
  "8008": ".Ġ\n(2)ĠNothingĠin",
  "8009": "mis",
  "8010": "Ġor,Ġif",
  "8011": "ĠsuchĠpersonĠis",
  "8012": "shallĠ\nhaveĠ",
  "8013": "sĠofĠtheir",
  "8014": "ĠonĠtheĠground",
  "8015": "*ĠĠĠĠĠĠĠĠĠĠĠĠĠĠ",
  "8016": "1978,Ġs.Ġ",
  "8017": "orĠtheĠ",
  "8018": "extinguish",
  "8019": "ĠofĠanyĠsuchĠ",
  "8020": "eĠtheĠ\n",
  "8021": "manag",
  "8022": "\"ĠomittedĠbyĠs.Ġ",
  "8023": ").ĠĠĠ\n4",
  "8024": "ultiv",
  "8025": "marke",
  "8026": "ĠorĠotherĠsimilar",
  "8027": ";Ġ\n(ii)",
  "8028": "anyĠ\n",
  "8029": "iy",
  "8030": "With",
  "8031": "prejudiceĠtoĠtheĠgeneral",
  "8032": "provisionsĠ",
  "8033": "onĠ\ntheĠ",
  "8034": "ĠanyĠjudgment,ĠdecreeĠor",
  "8035": "competentĠ",
  "8036": ").Ġ\n4.ĠSubs.ĠbyĠtheĠ",
  "8037": "ĠclauseĠ(Ġc)",
  "8038": ",ĠĠA",
  "8039": ",Ġs.Ġ8",
  "8040": "ĠappropriateĠ",
  "8041": ",Ġpro",
  "8042": "exercisableĠ",
  "8043": "Ġwhat",
  "8044": "tel",
  "8045": ",ĠorĠin",
  "8046": "ĠĠĠĠĠĠĠĠĠĠĠ\n(w.e.f.Ġ",
  "8047": "11-9-",
  "8048": "inĠany",
  "8049": "NotwithstandingĠanythingĠinĠtheĠforegoingĠprovisions",
  "8050": "ĠofĠaĠStateĠor",
  "8051": "connection",
  "8052": "sameĠ\n",
  "8053": "]ĠTheĠ",
  "8054": "opportun",
  "8055": "tri",
  "8056": "tender",
  "8057": "suit",
  "8058": "Ġdevelop",
  "8059": "suitableĠ",
  "8060": "Ġsecur",
  "8061": "step",
  "8062": "elf-",
  "8063": "Ġcapacity",
  "8064": "sĠ.—TheĠ",
  "8065": "StateĠshallĠendeavour",
  "8066": ",Ġibid.Ġ(w.e.f.Ġ3-1-1977",
  "8067": "andĠall",
  "8068": ").ĠĠ\n2.ĠSubs.ĠbyĠtheĠConstitutionĠ(",
  "8069": "tistic",
  "8070": "Ġ\nmadeĠ",
  "8071": "declaredĠbyĠ\nParliamentĠbyĠlaw",
  "8072": "ĠofĠeveryĠ",
  "8073": "—Ġ\n(a)Ġto",
  "8074": "atoryĠ",
  "8075": "women",
  "8076": "naturalĠ",
  "8077": "Ġ\n______________________________________________Ġ\n1.ĠIns.ĠbyĠtheĠ",
  "8078": "regulatedĠ",
  "8079": "formityĠ",
  "8080": "well",
  "8081": "populationĠas",
  "8082": "certainedĠatĠtheĠ",
  "8083": "ĠofĠwhichĠtheĠrelevantĠ",
  "8084": "edĠshall,Ġ",
  "8085": "untilĠtheĠ\n",
  "8086": "relevantĠfigur",
  "8087": "firstĠcensusĠ",
  "8088": "firstĠcensusĠtaken",
  "8089": "2026]Ġ",
  "8090": "ĠhasĠheld",
  "8091": "Ġthir",
  "8092": "ĠasĠaĠmember",
  "8093": "ĠthatĠheĠis",
  "8094": "heĠshallĠbeĠ",
  "8095": ",Ġ\nallowancesĠandĠ",
  "8096": "ĠasĠmayĠbeĠdeterminedĠbyĠParliamentĠbyĠlaw",
  "8097": "ĠasĠareĠspecifiedĠinĠtheĠSecondĠSchedule",
  "8098": "hisĠtermĠof",
  "8099": "makeĠandĠsubscribeĠ",
  "8100": "GodĠĠ",
  "8101": "fully",
  "8102": "riting",
  "8103": "hasĠbeenĠgiven",
  "8104": "edĠbyĠaĠmajority",
  "8105": "\ntheĠ",
  "8106": "shall,Ġ\n",
  "8107": "payableĠ",
  "8108": "Ġof,Ġ",
  "8109": "byĠaĠresolution",
  "8110": "intention",
  "8111": "intentionĠtoĠmoveĠ",
  "8112": "ĠsomeĠperson",
  "8113": "ĠbyĠhim,Ġan",
  "8114": "egianceĠtoĠtheĠConstitutionĠofĠIndiaĠasĠ",
  "8115": "'sĠ",
  "8116": "makeĠsuch",
  "8117": "ĠtoĠwhichĠtheĠ",
  "8118": "LegislatureĠofĠtheĠ\nStateĠ",
  "8119": "thatĠStateĠ",
  "8120": "PartĠBĠofĠtheĠFirstĠSchedule\"ĠomittedĠbyĠ\ntheĠConstitutionĠ(SeventhĠAmendment)ĠAct,Ġ1956,Ġs.Ġ29ĠandĠSch.Ġ(w.e.f.Ġ1-11-1956",
  "8121": "eadĠ",
  "8122": "Ġ\nsuch",
  "8123": "iceĠ",
  "8124": "s.Ġ—(1)ĠTheĠ",
  "8125": "ceedĠ",
  "8126": "efor",
  "8127": ",ĠtheĠPresidentĠshall",
  "8128": "forĠtheĠ\npurpos",
  "8129": "Ninety-firstĠ",
  "8130": "Ninety-firstĠAmendment)ĠAct,Ġ2003",
  "8131": "salariesĠandĠallowanc",
  "8132": "ĠParliamentĠ",
  "8133": "shallĠbeĠasĠ",
  "8134": ".Ġ\n(2)ĠItĠshallĠbeĠtheĠdutyĠofĠtheĠ",
  "8135": "legalĠ",
  "8136": "executiveĠaction",
  "8137": "nameĠofĠtheĠ",
  "8138": "allocation",
  "8139": "notificationĠNo",
  "8140": ",ĠasĠamend",
  "8141": "isions",
  "8142": "PresidentĠmayĠ\n",
  "8143": "CouncilĠofĠMinisters",
  "8144": "representativ",
  "8145": "ĠconsistĠofĠ",
  "8146": "sĠasĠtheĠ",
  "8147": ",Ġs.Ġ3,ĠforĠ\"",
  "8148": "\n(4)Ġ",
  "8149": "territorialĠconstituenciesĠinĠtheĠ",
  "8150": "doesĠ",
  "8151": ",Ġibid.Ġ",
  "8152": "division",
  "8153": "readjus",
  "8154": "ĠsuchĠreadjust",
  "8155": "ĠsuchĠreadjustmentĠ",
  "8156": "takesĠ",
  "8157": "Ġ6[",
  "8158": ").ĠĠ\n6",
  "8159": ",ĠĠibid.",
  "8160": "Ġdissolution",
  "8161": "inĠthatĠbehalf",
  "8162": "dateĠappointedĠforĠitsĠ",
  "8163": "ĠatĠaĠtimeĠ",
  "8164": "ceasedĠtoĠoper",
  "8165": "ĠsetĠoutĠ",
  "8166": "ĠthatĠ\nbehalf",
  "8167": "SixteenthĠAmendment)ĠAct,Ġ1963",
  "8168": "3).ĠĠ",
  "8169": "e;Ġ\n(b)Ġ",
  "8170": "eitherĠHouseĠ",
  "8171": "vacateĠhisĠofficeĠ",
  "8172": ",Ġor,Ġif",
  "8173": "vacant,Ġ",
  "8174": "DuringĠtheĠ",
  "8175": "rulesĠofĠprocedur",
  "8176": "whileĠanyĠ",
  "8177": ",Ġ\nas",
  "8178": "takeĠ\n",
  "8179": "alariesĠandĠallowancesĠasĠ",
  "8180": ",ĠsuchĠs",
  "8181": "secretar",
  "8182": "secretarial",
  "8183": "secretarialĠs",
  "8184": "tingĠtheĠ\n",
  "8185": "ĠpersonsĠappointed,Ġ",
  "8186": "ChairmanĠofĠtheĠCouncilĠofĠStates",
  "8187": "eĠorĠtheĠ",
  "8188": "ĠnoĠ",
  "8189": "Ġ(1)Ġ",
  "8190": "ĠanyĠofĠtheĠdis",
  "8191": "ĠanyĠofĠtheĠdisqualificationsĠ",
  "8192": "Ġpr",
  "8193": "ĠSeeĠtheĠ",
  "8194": ",ĠdatedĠtheĠ",
  "8195": "eĠofĠ\nIndia",
  "8196": "secondĠAmendment)ĠAct,Ġ1985",
  "8197": "ifĠheĠis",
  "8198": "ifĠheĠisĠsoĠdisqualifiedĠbyĠorĠunder",
  "8199": "ĠsuchĠState",
  "8200": "disqualifiedĠforĠbeing",
  "8201": "questionĠshallĠbeĠ",
  "8202": "referredĠforĠtheĠ",
  "8203": "StateĠasĠ",
  "8204": "ĠdeclaredĠbyĠParliamentĠbyĠlaw",
  "8205": "itedĠ",
  "8206": "ĠofĠanyĠlawĠmadeĠbyĠParliament",
  "8207": "rulesĠandĠ",
  "8208": "ĠordersĠ",
  "8209": "Ġ\nHouseĠofĠ",
  "8210": "Ġ\nHouseĠofĠParliament",
  "8211": "membersĠandĠtheĠ",
  "8212": "eĠofĠthatĠ",
  "8213": "ĠofĠtheĠDominionĠofĠIndia",
  "8214": "jectĠ\nto",
  "8215": ",ĠaĠBill",
  "8216": "agreedĠto",
  "8217": "ĠpendingĠinĠtheĠ",
  "8218": ".Ġ—(1)ĠIf",
  "8219": "transmittedĠ",
  "8220": "madeĠinĠtheĠ",
  "8221": "summon",
  "8222": "Ġsum",
  "8223": "After",
  "8224": "saidĠperiodĠofĠ",
  "8225": "imposition,Ġa",
  "8226": "imposition,Ġabolition",
  "8227": "imposition,Ġabolition,Ġre",
  "8228": "imposition,Ġabolition,Ġremission",
  "8229": "imposition,Ġabolition,Ġremission,",
  "8230": "imposition,Ġabolition,Ġremission,Ġalteration",
  "8231": "accountsĠofĠtheĠUnion",
  "8232": "Ġincidental",
  "8233": "providesĠforĠtheĠ",
  "8234": "feesĠfor",
  "8235": "encesĠorĠ",
  "8236": "ĠservicesĠ",
  "8237": ",ĠtheĠc",
  "8238": "ĠassentĠtherefrom",
  "8239": "specifiedĠ",
  "8240": "recommen",
  "8241": "recommendĠ",
  "8242": "Ġmess",
  "8243": "both",
  "8244": "annualĠfinancialĠstatement",
  "8245": "ĠthisĠ\nConstitution",
  "8246": "relatingĠtoĠ",
  "8247": "alaries,Ġall",
  "8248": "jurisdictionĠinĠrelationĠto",
  "8249": "ĠofĠtheĠFirstĠSchedule",
  "8250": "reduction",
  "8251": "specifiedĠtherein",
  "8252": "shallĠbeĠmadeĠ",
  "8253": "provisionsĠofĠarticlesĠ",
  "8254": "ĠshallĠhaveĠeffectĠin",
  "8255": "etĠsuchĠ",
  "8256": "effectĠinĠrelationĠtoĠtheĠ",
  "8257": "edĠwithĠtheĠ",
  "8258": "introducedĠor",
  "8259": "brough",
  "8260": "usinessĠin",
  "8261": "dateĠnotĠnotified",
  "8262": "Ġ\nanythingĠin",
  "8263": "sĠtheĠ",
  "8264": "isĠsatisfiedĠthat",
  "8265": "necessaryĠforĠ",
  "8266": ",ĠheĠmayĠ",
  "8267": ".Ġ\n(2)ĠAn",
  "8268": "byĠtheĠPresident",
  "8269": "*ĠĠĠĠĠĠĠĠĠĠĠĠĠĠĠĠĠĠĠĠĠĠĠ*ĠĠĠĠĠĠĠĠĠĠĠĠĠĠĠĠĠĠĠĠĠĠĠĠ",
  "8270": "arrantĠunderĠhisĠhandĠandĠs",
  "8271": ":Ġ\n3[",
  "8272": "ĠaĠJudgeĠ",
  "8273": "videĠtheĠ",
  "8274": "ultationĠwith",
  "8275": "13-4-2015).ĠThisĠamendmentĠhasĠbeenĠstruckĠdown",
  "8276": "ĠandĠanotherĠ",
  "8277": "UnionĠofĠIndiaĠinĠitsĠjudgmentĠ",
  "8278": "firstĠproviso",
  "8279": "JudgeĠofĠaĠHighĠCourt",
  "8280": "ĠanĠadvoc",
  "8281": "ĠhasĠ\n",
  "8282": "transferĠofĠ",
  "8283": "rightsĠinĠrespectĠofĠleaveĠofĠabs",
  "8284": "neither",
  "8285": "variedĠtoĠ",
  "8286": "advantageĠafter",
  "8287": "advantageĠafterĠhis",
  "8288": "Fifty-fourthĠAmendment)ĠAct,Ġ",
  "8289": "Fifty-fourthĠAmendment)ĠAct,Ġ1986",
  "8290": "ĠtheĠduties",
  "8291": "thereĠ",
  "8292": "ailableĠ",
  "8293": "ĠanĠa",
  "8294": "HighĠCourtĠandĠ",
  "8295": "ĠasĠtheĠPresidentĠmayĠbyĠorder",
  "8296": "depend",
  "8297": "fies",
  "8298": "alĠquestionĠofĠlaw",
  "8299": "appeal",
  "8300": "ĠasĠaforesaid",
  "8301": "subjectĠtoĠsuchĠ\n",
  "8302": "Ġor,ĠasĠtheĠcaseĠmayĠbe,Ġ",
  "8303": "ĠpassedĠorĠmadeĠ",
  "8304": "shallĠapplyĠtoĠanyĠ",
  "8305": "appear",
  "8306": "ĠasĠisĠ",
  "8307": "tĠtoĠtheĠPresidentĠ",
  "8308": "aidĠofĠtheĠ",
  "8309": ".ĠSeeĠtheĠ",
  "8310": "En",
  "8311": "proceedings",
  "8312": "ĠclauseĠ(3)",
  "8313": ").Ġ\n5.ĠSubs.ĠbyĠtheĠ",
  "8314": ",Ġsuch",
  "8315": "Ġalread",
  "8316": "rulesĠmadeĠbyĠtheĠ",
  "8317": "shallĠform",
  "8318": "ĠofĠPartĠ",
  "8319": "Ġreferences",
  "8320": "enactment",
  "8321": "emen",
  "8322": "Order",
  "8323": "byĠ\nParliament",
  "8324": "partment",
  "8325": "laidĠbeforeĠeachĠHouseĠofĠParliament",
  "8326": "ĠofĠaĠStateĠshallĠbeĠ",
  "8327": "Ġ3***",
  "8328": "eachĠState",
  "8329": ".,ĠĠ",
  "8330": "fullyĠ",
  "8331": "ĠofĠ\nthisĠConstitution",
  "8332": "ĠinĠhisĠdiscretion",
  "8333": "ĠofĠ\naĠ",
  "8334": "expirationĠofĠthatĠperiod",
  "8335": "wordĠ",
  "8336": "BombayĠReorganisationĠAct,Ġ",
  "8337": ").Ġ\n7",
  "8338": "31ĠofĠ197",
  "8339": ").Ġ\n8",
  "8340": "Ġ(6ĠofĠ",
  "8341": "Ġspecify",
  "8342": "gra",
  "8343": "equivalentĠto",
  "8344": "chool",
  "8345": "membersĠofĠ\ntheĠ",
  "8346": "9\n",
  "8347": "fromĠtheĠ\n",
  "8348": "75",
  "8349": "GovernorĠmay",
  "8350": "ĠaĠStateĠhavingĠaĠLegislativeĠCouncil",
  "8351": "ĠtheĠChairman",
  "8352": "unlessĠ\n",
  "8353": ".Ġ\n(2)ĠAĠ",
  "8354": "LegislatureĠofĠtheĠStateĠbyĠlaw",
  "8355": ";ĠorĠ\n",
  "8356": "ĠofĠaĠ\nStateĠ",
  "8357": "tĠofĠsuch",
  "8358": "LegislatureĠofĠaĠStateĠmay,Ġ",
  "8359": "ĠforĠ\ntheĠ",
  "8360": "]Ġ\n3[",
  "8361": "1970Ġ(",
  "8362": "StateĠofĠMizoramĠAct,Ġ1986Ġ(34ĠofĠ1986),Ġs.Ġ39",
  "8363": "ĠGOVERN",
  "8364": "Ġsession",
  "8365": "had",
  "8366": "ĠĠĠĠĠĠĠĠĠĠĠĠ\n",
  "8367": "ĠwouldĠ",
  "8368": "pugnan",
  "8369": "ĠandĠ(3)",
  "8370": "Ano",
  "8371": "Another",
  "8372": ").ĠTHEĠCONSTITUTIONĠOFĠĠINDIAĠ\n(PartĠVI.—TheĠStates)Ġ10",
  "8373": "Ġotherwise,Ġ",
  "8374": "shouldĠbeĠ",
  "8375": "madeĠbyĠ",
  "8376": "ĠforĠ\"",
  "8377": ",ĠforĠ\"theĠ",
  "8378": "territoriesĠ",
  "8379": "s,Ġfigur",
  "8380": "s,ĠfiguresĠandĠ",
  "8381": "s,ĠfiguresĠandĠletter",
  "8382": "(3),Ġ",
  "8383": "sĠfromĠtheĠdateĠonĠwhich",
  "8384": "superintend",
  "8385": ",Ġs.Ġ10",
  "8386": "9Ġ(w.e.f.Ġ",
  "8387": "judicialĠservic",
  "8388": ",Ġpromotion",
  "8389": ",ĠpromotionĠorĠtransfer",
  "8390": "ĠdirectĠthat",
  "8391": "join",
  "8392": "asĠsuch",
  "8393": "28-12-",
  "8394": "Alteration",
  "8395": "VIII.—TheĠ",
  "8396": "VIII.—TheĠUnionĠTerritories",
  "8397": "VIII.—TheĠUnionĠTerritories)ĠĠ\n",
  "8398": "calledĠtheĠ",
  "8399": "NationalĠCapitalĠTerritory",
  "8400": "hereafter",
  "8401": "LieutenantĠ",
  "8402": "lawsĠforĠtheĠ",
  "8403": "ĠanyĠprovisionĠofĠaĠ",
  "8404": "eitherĠcas",
  "8405": "ĠorĠrepeal",
  "8406": "ĠaĠsitu",
  "8407": "ĠaĠsituation",
  "8408": "ĠhasĠarisen",
  "8409": "duringĠtheĠperiod",
  "8410": "ĠIsland",
  "8411": "Merger",
  "8412": "(ii)Ġ",
  "8413": "ĠforĠtheĠtimeĠbeing",
  "8414": "ĠĠ\"",
  "8415": "provide",
  "8416": "ConstitutionĠ(Seventy-",
  "8417": "ĠthisĠ\n",
  "8418": "Chairpersons",
  "8419": ".ĠTHEĠCONSTITUTIONĠOFĠĠINDIAĠ\n(PartĠIX",
  "8420": "soĠreserv",
  "8421": "reservedĠforĠtheĠ",
  "8422": "toĠhaveĠeffectĠ",
  "8423": "toĠhaveĠeffectĠonĠtheĠ",
  "8424": "NothingĠinĠthis",
  "8425": "Ġforce,Ġ",
  "8426": "duration",
  "8427": "ĠclauseĠ(1",
  "8428": "ĠshallĠcontinueĠ",
  "8429": "ifĠheĠhas",
  "8430": "feesĠ",
  "8431": "StateĠGovernmentĠ",
  "8432": "Ġmoneys",
  "8433": "Amendment)Ġ\nAct,Ġ",
  "8434": "shar",
  "8435": "measuresĠ",
  "8436": "ĠandĠtheĠcon",
  "8437": "ĠclauseĠ(2)",
  "8438": "ĠshallĠapplyĠtoĠtheĠ",
  "8439": "arj",
  "8440": "eel",
  "8441": "ĠofĠ\nthatĠ",
  "8442": "suchĠ\ncommen",
  "8443": "ĠĠ\nĠĠĠĠ(w.e.f.Ġ",
  "8444": "Ġpropos",
  "8445": "Ġtown",
  "8446": "”ĠmeansĠ",
  "8447": "employmentĠ",
  "8448": "anceĠor",
  "8449": "mannerĠinĠwhichĠtheĠ",
  "8450": "lanningĠCommitteeĠ",
  "8451": "developmentĠplan",
  "8452": "edĠbyĠsuch",
  "8453": "ety",
  "8454": "withĠrespectĠtoĠtheĠ",
  "8455": "Soci",
  "8456": "Ġboard",
  "8457": ",ĠasĠmayĠbeĠ",
  "8458": "Ġdat",
  "8459": "ĠamountĠ",
  "8460": "untilĠtheĠexpirationĠofĠ",
  "8461": "ĠanyĠpartĠthereof",
  "8462": "I.—",
  "8463": "I.—Re",
  "8464": "I.—RelationsĠ",
  "8465": "I.—RelationsĠbetweenĠtheĠUnionĠandĠtheĠStates",
  "8466": "I.—RelationsĠbetweenĠtheĠUnionĠandĠtheĠStates)Ġ\n",
  "8467": "supplyĠofĠ",
  "8468": "inĠtheĠcourseĠofĠinter-StateĠtradeĠor",
  "8469": "sixĠmonths",
  "8470": "doneĠorĠomittedĠ",
  "8471": "doneĠorĠomittedĠtoĠbeĠ",
  "8472": "doneĠorĠomittedĠtoĠbeĠdoneĠ",
  "8473": "Ġ\n(w.e.f.Ġ16-9-2016",
  "8474": "ĠaĠlaw",
  "8475": ").ĠĠĠTHEĠCONSTITUTIONĠOFĠĠINDIAĠ\n(PartĠX",
  "8476": "Ġwaterways",
  "8477": ".ĠTHEĠCONSTITUTIONĠOFĠĠINDIAĠ\n(PartĠX",
  "8478": "plaint",
  "8479": "tampĠd",
  "8480": "saleĠorĠpurchaseĠofĠ",
  "8481": "1996",
  "8482": "(1)ĠandĠ(2)",
  "8483": "List,Ġ",
  "8484": "Ġincome",
  "8485": "withĠtheĠapproval",
  "8486": "rates",
  "8487": "akh",
  "8488": "petro",
  "8489": "sĠofĠtheĠ\n",
  "8490": ".ĠTheĠwordsĠ\"orĠRajpramukh\"ĠomittedĠbyĠtheĠConstitutionĠ(SeventhĠAmendment)",
  "8491": "taxĠon",
  "8492": "ĠconnectionĠwithĠtheĠaffairsĠofĠtheĠ",
  "8493": "Ġlakh",
  "8494": "predecessorĠ",
  "8495": "predecessorĠGovernment",
  "8496": "ĠinĠ\nrespec",
  "8497": "ĠandĠass",
  "8498": "success",
  "8499": "ĠaĠparty",
  "8500": "ĠservicesĠandĠpostsĠin",
[...]
